{
  "version": "1.0",
  "truncation": null,
  "padding": null,
  "added_tokens": [
    {
      "id": 0,
      "content": "<|eos|>",
      "single_word": false,
      "lstrip": false,
      "rstrip": false,
      "normalized": false,
      "special": true
    },
    {
      "id": 1,
      "content": "<|pad|>",
      "single_word": false,
      "lstrip": false,
      "rstrip": false,
      "normalized": false,
      "special": true
    },
    {
      "id": 2,
      "content": "<|unk|>",
      "single_word": false,
      "lstrip": false,
      "rstrip": false,
      "normalized": false,
      "special": true
    },
    {
      "id": 8192,
      "content": "<|BadEnding|>",
      "single_word": false,
      "lstrip": false,
      "rstrip": false,
      "normalized": true,
      "special": false
    },
    {
      "id": 8193,
      "content": "<|Conflict|>",
      "single_word": false,
      "lstrip": false,
      "rstrip": false,
      "normalized": true,
      "special": false
    },
    {
      "id": 8194,
      "content": "<|Dialogue|>",
      "single_word": false,
      "lstrip": false,
      "rstrip": false,
      "normalized": true,
      "special": false
    },
    {
      "id": 8195,
      "content": "<|Foreshadowing|>",
      "single_word": false,
      "lstrip": false,
      "rstrip": false,
      "normalized": true,
      "special": false
    },
    {
      "id": 8196,
      "content": "<|MoralValue|>",
      "single_word": false,
      "lstrip": false,
      "rstrip": false,
      "normalized": true,
      "special": false
    },
    {
      "id": 8197,
      "content": "<|Twist|>",
      "single_word": false,
      "lstrip": false,
      "rstrip": false,
      "normalized": true,
      "special": false
    }
  ],
  "normalizer": null,
  "pre_tokenizer": {
    "type": "Whitespace"
  },
  "post_processor": null,
  "decoder": null,
  "model": {
    "type": "BPE",
    "dropout": null,
    "unk_token": "<|unk|>",
    "continuing_subword_prefix": null,
    "end_of_word_suffix": null,
    "fuse_unk": false,
    "byte_fallback": false,
    "ignore_merges": false,
    "vocab": {
      "<|eos|>": 0,
      "<|pad|>": 1,
      "<|unk|>": 2,
      "!": 3,
      "\"": 4,
      "#": 5,
      "$": 6,
      "%": 7,
      "&": 8,
      "'": 9,
      "(": 10,
      ")": 11,
      "*": 12,
      "+": 13,
      ",": 14,
      "-": 15,
      ".": 16,
      "/": 17,
      "0": 18,
      "1": 19,
      "2": 20,
      "3": 21,
      "4": 22,
      "5": 23,
      "6": 24,
      "7": 25,
      "8": 26,
      "9": 27,
      ":": 28,
      ";": 29,
      "=": 30,
      "?": 31,
      "A": 32,
      "B": 33,
      "C": 34,
      "D": 35,
      "E": 36,
      "F": 37,
      "G": 38,
      "H": 39,
      "I": 40,
      "J": 41,
      "K": 42,
      "L": 43,
      "M": 44,
      "N": 45,
      "O": 46,
      "P": 47,
      "Q": 48,
      "R": 49,
      "S": 50,
      "T": 51,
      "U": 52,
      "V": 53,
      "W": 54,
      "X": 55,
      "Y": 56,
      "Z": 57,
      "[": 58,
      "\\": 59,
      "]": 60,
      "`": 61,
      "a": 62,
      "b": 63,
      "c": 64,
      "d": 65,
      "e": 66,
      "f": 67,
      "g": 68,
      "h": 69,
      "i": 70,
      "j": 71,
      "k": 72,
      "l": 73,
      "m": 74,
      "n": 75,
      "o": 76,
      "p": 77,
      "q": 78,
      "r": 79,
      "s": 80,
      "t": 81,
      "u": 82,
      "v": 83,
      "w": 84,
      "x": 85,
      "y": 86,
      "z": 87,
      "{": 88,
      "}": 89,
      "he": 90,
      "an": 91,
      "the": 92,
      "ed": 93,
      "to": 94,
      "and": 95,
      "in": 96,
      "re": 97,
      "it": 98,
      "wa": 99,
      "ou": 100,
      "ha": 101,
      "The": 102,
      "er": 103,
      "was": 104,
      "en": 105,
      "ay": 106,
      "om": 107,
      "is": 108,
      "ar": 109,
      "on": 110,
      "im": 111,
      "sa": 112,
      "id": 113,
      "ll": 114,
      "le": 115,
      "ing": 116,
      "st": 117,
      "ot": 118,
      "am": 119,
      "or": 120,
      "ir": 121,
      "ne": 122,
      "They": 123,
      "pl": 124,
      "ig": 125,
      "at": 126,
      "He": 127,
      "be": 128,
      "il": 129,
      "lo": 130,
      "all": 131,
      "ri": 132,
      "ver": 133,
      "his": 134,
      "day": 135,
      "ut": 136,
      "said": 137,
      "play": 138,
      "Tim": 139,
      "ith": 140,
      "se": 141,
      "with": 142,
      "pp": 143,
      "ked": 144,
      "her": 145,
      "ow": 146,
      "ke": 147,
      "ce": 148,
      "un": 149,
      "She": 150,
      "hat": 151,
      "ld": 152,
      "th": 153,
      "big": 154,
      "end": 155,
      "you": 156,
      "very": 157,
      "ted": 158,
      "ve": 159,
      "li": 160,
      "ck": 161,
      "we": 162,
      "happ": 163,
      "of": 164,
      "riend": 165,
      "friend": 166,
      "up": 167,
      "they": 168,
      "ily": 169,
      "had": 170,
      "not": 171,
      "ad": 172,
      "wan": 173,
      "ge": 174,
      "itt": 175,
      "ome": 176,
      "ther": 177,
      "do": 178,
      "nd": 179,
      "bo": 180,
      "al": 181,
      "happy": 182,
      "ch": 183,
      "for": 184,
      "ent": 185,
      "Lily": 186,
      "saw": 187,
      "she": 188,
      "that": 189,
      "One": 190,
      "ould": 191,
      "mom": 192,
      "ittle": 193,
      "little": 194,
      "ime": 195,
      "as": 196,
      "time": 197,
      "so": 198,
      "Tom": 199,
      "ro": 200,
      ".\"": 201,
      "fe": 202,
      "nam": 203,
      "ound": 204,
      "es": 205,
      "there": 206,
      "oo": 207,
      "named": 208,
      "sm": 209,
      "were": 210,
      "!\"": 211,
      "wanted": 212,
      "It": 213,
      "but": 214,
      "friends": 215,
      "ved": 216,
      "ird": 217,
      "ht": 218,
      "sh": 219,
      "ry": 220,
      "ra": 221,
      "too": 222,
      "bird": 223,
      "are": 224,
      "my": 225,
      "On": 226,
      "ug": 227,
      "out": 228,
      "ake": 229,
      "lp": 230,
      "ide": 231,
      "ter": 232,
      "went": 233,
      "car": 234,
      "Once": 235,
      "ue": 236,
      "loo": 237,
      "help": 238,
      "upon": 239,
      "thing": 240,
      "ind": 241,
      "fun": 242,
      "ill": 243,
      "toy": 244,
      "ame": 245,
      "did": 246,
      "gether": 247,
      "ly": 248,
      "some": 249,
      "pe": 250,
      "ur": 251,
      "way": 252,
      "one": 253,
      "me": 254,
      "together": 255,
      "cat": 256,
      "ore": 257,
      "tre": 258,
      "ack": 259,
      "ag": 260,
      "new": 261,
      "can": 262,
      "came": 263,
      "could": 264,
      "ood": 265,
      "dog": 266,
      "their": 267,
      "ball": 268,
      "ic": 269,
      "?\"": 270,
      "par": 271,
      "him": 272,
      "gir": 273,
      "played": 274,
      "But": 275,
      "girl": 276,
      "go": 277,
      "fu": 278,
      "ho": 279,
      "man": 280,
      "them": 281,
      "hen": 282,
      "um": 283,
      "ax": 284,
      "Sue": 285,
      "rom": 286,
      "sad": 287,
      "boy": 288,
      "have": 289,
      "Max": 290,
      "tree": 291,
      "looked": 292,
      "loved": 293,
      "hed": 294,
      "oug": 295,
      "found": 296,
      "ab": 297,
      "star": 298,
      "side": 299,
      "la": 300,
      "Ben": 301,
      "back": 302,
      "other": 303,
      "lt": 304,
      "park": 305,
      "like": 306,
      "Sam": 307,
      "ain": 308,
      "ful": 309,
      "own": 310,
      "de": 311,
      "op": 312,
      "pr": 313,
      "et": 314,
      "ong": 315,
      "would": 316,
      "no": 317,
      "pot": 318,
      "fa": 319,
      "ight": 320,
      "ran": 321,
      "sto": 322,
      "liked": 323,
      "co": 324,
      "make": 325,
      "You": 326,
      "felt": 327,
      "see": 328,
      "want": 329,
      "now": 330,
      "asked": 331,
      "ard": 332,
      "started": 333,
      "ouse": 334,
      "ca": 335,
      "iled": 336,
      "ought": 337,
      "good": 338,
      "ice": 339,
      "small": 340,
      "smiled": 341,
      "wor": 342,
      "ried": 343,
      "more": 344,
      "ex": 345,
      "say": 346,
      "mad": 347,
      "red": 348,
      "scar": 349,
      "gr": 350,
      "Spot": 351,
      "king": 352,
      "put": 353,
      "find": 354,
      "ty": 355,
      "Mom": 356,
      "away": 357,
      "home": 358,
      "something": 359,
      "from": 360,
      "what": 361,
      "made": 362,
      "thought": 363,
      "ened": 364,
      "uc": 365,
      "playing": 366,
      "sha": 367,
      "wal": 368,
      "ia": 369,
      "every": 370,
      "mu": 371,
      "ach": 372,
      "arn": 373,
      "ile": 374,
      "Mia": 375,
      "laug": 376,
      "box": 377,
      "again": 378,
      "house": 379,
      "ret": 380,
      "use": 381,
      "down": 382,
      "scared": 383,
      "learn": 384,
      "took": 385,
      "ure": 386,
      "ny": 387,
      "toys": 388,
      "will": 389,
      "get": 390,
      "ss": 391,
      "around": 392,
      "dd": 393,
      "your": 394,
      "got": 395,
      "things": 396,
      "oud": 397,
      "low": 398,
      "el": 399,
      "ish": 400,
      ",\"": 401,
      "ick": 402,
      "then": 403,
      "lived": 404,
      "lot": 405,
      "pec": 406,
      "ave": 407,
      "ep": 408,
      "So": 409,
      "sun": 410,
      "der": 411,
      "when": 412,
      "ob": 413,
      "pped": 414,
      "na": 415,
      "ie": 416,
      "bot": 417,
      "ru": 418,
      "te": 419,
      "if": 420,
      "Luc": 421,
      "Lucy": 422,
      "tried": 423,
      "room": 424,
      "ant": 425,
      "ited": 426,
      "know": 427,
      "any": 428,
      "who": 429,
      "says": 430,
      "pic": 431,
      "ump": 432,
      "many": 433,
      "about": 434,
      "pret": 435,
      "us": 436,
      "care": 437,
      "dec": 438,
      "We": 439,
      "ise": 440,
      "knew": 441,
      "ous": 442,
      "ist": 443,
      "by": 444,
      "ank": 445,
      "ally": 446,
      "water": 447,
      "ate": 448,
      "ways": 449,
      "qu": 450,
      "learned": 451,
      "pu": 452,
      "fter": 453,
      "became": 454,
      "best": 455,
      "And": 456,
      "ust": 457,
      "ive": 458,
      "bl": 459,
      "exc": 460,
      "laughed": 461,
      "gre": 462,
      "nex": 463,
      "long": 464,
      "cause": 465,
      "mo": 466,
      "look": 467,
      "outside": 468,
      "decid": 469,
      "here": 470,
      "always": 471,
      "show": 472,
      "into": 473,
      "decided": 474,
      "eat": 475,
      "because": 476,
      "ite": 477,
      "fore": 478,
      "Let": 479,
      "po": 480,
      "An": 481,
      "cle": 482,
      "ma": 483,
      "cl": 484,
      "hug": 485,
      "both": 486,
      "run": 487,
      "Then": 488,
      "dad": 489,
      "ang": 490,
      "ok": 491,
      "jump": 492,
      "fast": 493,
      "ers": 494,
      "sur": 495,
      "clo": 496,
      "this": 497,
      "excited": 498,
      "When": 499,
      "nice": 500,
      "feel": 501,
      "sor": 502,
      "Yes": 503,
      "wh": 504,
      "bb": 505,
      "old": 506,
      "bu": 507,
      "ink": 508,
      "pa": 509,
      "told": 510,
      "come": 511,
      "sk": 512,
      "br": 513,
      "Bob": 514,
      "ara": 515,
      "His": 516,
      "inside": 517,
      "surpr": 518,
      "fish": 519,
      "iny": 520,
      "pretty": 521,
      "ook": 522,
      "fly": 523,
      "ta": 524,
      "Anna": 525,
      "gave": 526,
      "take": 527,
      "our": 528,
      "Amy": 529,
      "much": 530,
      "lew": 531,
      "jo": 532,
      "how": 533,
      "let": 534,
      "each": 535,
      "ven": 536,
      "its": 537,
      "imal": 538,
      "under": 539,
      "animal": 540,
      "udd": 541,
      "need": 542,
      "ac": 543,
      "flow": 544,
      "than": 545,
      "able": 546,
      "As": 547,
      "sorry": 548,
      "Sara": 549,
      "rd": 550,
      "ged": 551,
      "ell": 552,
      "sw": 553,
      "Can": 554,
      "Th": 555,
      "uck": 556,
      "ised": 557,
      "rock": 558,
      "walked": 559,
      "rain": 560,
      "Thank": 561,
      "bear": 562,
      "hand": 563,
      "dre": 564,
      "read": 565,
      "lea": 566,
      "urn": 567,
      "urt": 568,
      "kind": 569,
      "just": 570,
      "try": 571,
      "Her": 572,
      "list": 573,
      "happened": 574,
      "ine": 575,
      "str": 576,
      "bet": 577,
      "spec": 578,
      "In": 579,
      "food": 580,
      "igh": 581,
      "animals": 582,
      "wat": 583,
      "didn": 584,
      "sky": 585,
      "fi": 586,
      "near": 587,
      "never": 588,
      "ving": 589,
      "bug": 590,
      "From": 591,
      "bro": 592,
      "ket": 593,
      "idea": 594,
      "better": 595,
      "cre": 596,
      "che": 597,
      "tw": 598,
      "heard": 599,
      "nt": 600,
      "ace": 601,
      "sp": 602,
      "bed": 603,
      "ff": 604,
      "tal": 605,
      "love": 606,
      "flew": 607,
      "careful": 608,
      "ber": 609,
      "ion": 610,
      "ial": 611,
      "com": 612,
      "share": 613,
      "special": 614,
      "col": 615,
      "lots": 616,
      "tow": 617,
      "anymore": 618,
      "lf": 619,
      "where": 620,
      "book": 621,
      "cake": 622,
      "give": 623,
      "wind": 624,
      "clean": 625,
      "don": 626,
      "ground": 627,
      "per": 628,
      "Every": 629,
      "ople": 630,
      "even": 631,
      "safe": 632,
      "That": 633,
      "lad": 634,
      "ass": 635,
      "over": 636,
      "mag": 637,
      "udden": 638,
      "shiny": 639,
      "bad": 640,
      "turn": 641,
      "fam": 642,
      "after": 643,
      "rm": 644,
      "people": 645,
      "ever": 646,
      "door": 647,
      "proud": 648,
      "uddenly": 649,
      "gard": 650,
      "garden": 651,
      "Do": 652,
      "rabb": 653,
      "surprised": 654,
      "picked": 655,
      "app": 656,
      "pected": 657,
      "hurt": 658,
      "opened": 659,
      "loud": 660,
      "bea": 661,
      "high": 662,
      "hard": 663,
      "What": 664,
      "fo": 665,
      "cha": 666,
      "nexpected": 667,
      "unexpected": 668,
      "place": 669,
      "unt": 670,
      "clim": 671,
      "still": 672,
      "far": 673,
      "hugged": 674,
      "ct": 675,
      "No": 676,
      "blue": 677,
      "call": 678,
      "ear": 679,
      "thanked": 680,
      "color": 681,
      "ummy": 682,
      "Jo": 683,
      "mor": 684,
      "ough": 685,
      "magic": 686,
      "off": 687,
      "Wh": 688,
      "family": 689,
      "ool": 690,
      "kid": 691,
      "rog": 692,
      "should": 693,
      "jumped": 694,
      "smile": 695,
      "walk": 696,
      "rel": 697,
      "imp": 698,
      "great": 699,
      "boat": 700,
      "uff": 701,
      "squ": 702,
      "stay": 703,
      "ble": 704,
      "Suddenly": 705,
      "ark": 706,
      "bra": 707,
      "strong": 708,
      "ture": 709,
      "dy": 710,
      "frog": 711,
      "sl": 712,
      "beaut": 713,
      "forest": 714,
      "tru": 715,
      "until": 716,
      "stick": 717,
      "sed": 718,
      "Sally": 719,
      "ning": 720,
      "lease": 721,
      "ort": 722,
      "dan": 723,
      "pt": 724,
      "next": 725,
      "This": 726,
      "happily": 727,
      "After": 728,
      "beauti": 729,
      "beautiful": 730,
      "listen": 731,
      "helped": 732,
      "kids": 733,
      "ched": 734,
      "itty": 735,
      "ess": 736,
      "story": 737,
      "yes": 738,
      "showed": 739,
      "while": 740,
      "picture": 741,
      "unny": 742,
      "ste": 743,
      "lly": 744,
      "ip": 745,
      "town": 746,
      "At": 747,
      "cu": 748,
      "ak": 749,
      "dra": 750,
      "Kitty": 751,
      "keep": 752,
      "ree": 753,
      "les": 754,
      "being": 755,
      "met": 756,
      "everyone": 757,
      "oft": 758,
      "called": 759,
      "game": 760,
      "ane": 761,
      "Now": 762,
      "stopped": 763,
      "angry": 764,
      "Fin": 765,
      "uffy": 766,
      "joy": 767,
      "yummy": 768,
      "open": 769,
      "luffy": 770,
      "lost": 771,
      "ild": 772,
      "cry": 773,
      "truck": 774,
      "sing": 775,
      "ask": 776,
      "flowers": 777,
      "soft": 778,
      "won": 779,
      "Jack": 780,
      "brave": 781,
      "vent": 782,
      "ished": 783,
      "laugh": 784,
      "warm": 785,
      "ond": 786,
      "work": 787,
      "couldn": 788,
      "watch": 789,
      "mouse": 790,
      "two": 791,
      "gan": 792,
      "fell": 793,
      "mon": 794,
      "flower": 795,
      "llo": 796,
      "also": 797,
      "green": 798,
      "face": 799,
      "less": 800,
      "leave": 801,
      "irst": 802,
      "top": 803,
      "Look": 804,
      "noise": 805,
      "hole": 806,
      "Hi": 807,
      "lock": 808,
      "store": 809,
      "ser": 810,
      "irrel": 811,
      "soon": 812,
      "sat": 813,
      "illy": 814,
      "zz": 815,
      "right": 816,
      "owl": 817,
      "self": 818,
      "hear": 819,
      "slide": 820,
      "Fluffy": 821,
      "ung": 822,
      "squirrel": 823,
      "ired": 824,
      "before": 825,
      "kept": 826,
      "used": 827,
      "tor": 828,
      "race": 829,
      "doll": 830,
      "nodd": 831,
      "pain": 832,
      "nodded": 833,
      "hands": 834,
      "yard": 835,
      "cream": 836,
      "key": 837,
      "table": 838,
      "going": 839,
      "expl": 840,
      "having": 841,
      "mber": 842,
      "think": 843,
      "looking": 844,
      "swing": 845,
      "funny": 846,
      "rabbit": 847,
      "rest": 848,
      "Don": 849,
      "zed": 850,
      "vo": 851,
      "tr": 852,
      "shed": 853,
      "leep": 854,
      "aybe": 855,
      "birds": 856,
      "head": 857,
      "fin": 858,
      "set": 859,
      "tired": 860,
      "ught": 861,
      "uch": 862,
      "fix": 863,
      "thr": 864,
      "tell": 865,
      "yell": 866,
      "catch": 867,
      "sn": 868,
      "wr": 869,
      "lled": 870,
      "kit": 871,
      "bunny": 872,
      "cra": 873,
      "ting": 874,
      "has": 875,
      "mean": 876,
      "flo": 877,
      "cold": 878,
      "sound": 879,
      "talk": 880,
      "cut": 881,
      "ries": 882,
      "member": 883,
      "ama": 884,
      "cook": 885,
      "cou": 886,
      "night": 887,
      "chen": 888,
      "kitchen": 889,
      "pond": 890,
      "first": 891,
      "sunny": 892,
      "Dad": 893,
      "Why": 894,
      "ies": 895,
      "others": 896,
      "wait": 897,
      "sand": 898,
      "ath": 899,
      "dif": 900,
      "Hello": 901,
      "pie": 902,
      "bar": 903,
      "import": 904,
      "mommy": 905,
      "age": 906,
      "con": 907,
      "eyes": 908,
      "ious": 909,
      "fav": 910,
      "remember": 911,
      "swe": 912,
      "Joh": 913,
      "llow": 914,
      "party": 915,
      "ft": 916,
      "Bo": 917,
      "John": 918,
      "shared": 919,
      "ster": 920,
      "duck": 921,
      "fru": 922,
      "orn": 923,
      "draw": 924,
      "important": 925,
      "curi": 926,
      "climb": 927,
      "dir": 928,
      "light": 929,
      "making": 930,
      "hone": 931,
      "move": 932,
      "worked": 933,
      "hid": 934,
      "okay": 935,
      "times": 936,
      "moral": 937,
      "dis": 938,
      "began": 939,
      "Mommy": 940,
      "ze": 941,
      "ash": 942,
      "hill": 943,
      "enjoy": 944,
      "bright": 945,
      "curious": 946,
      "Wow": 947,
      "dress": 948,
      "sho": 949,
      "advent": 950,
      "tall": 951,
      "que": 952,
      "sleep": 953,
      "hind": 954,
      "agre": 955,
      "cla": 956,
      "shar": 957,
      "favor": 958,
      "bre": 959,
      "Bobo": 960,
      "favorite": 961,
      "follow": 962,
      "agreed": 963,
      "ken": 964,
      "mess": 965,
      "watched": 966,
      "behind": 967,
      "bag": 968,
      "fire": 969,
      "hung": 970,
      "block": 971,
      "surprise": 972,
      "please": 973,
      "stop": 974,
      "grass": 975,
      "pick": 976,
      "floor": 977,
      "hot": 978,
      "air": 979,
      "trees": 980,
      "butter": 981,
      "closer": 982,
      "ange": 983,
      "walking": 984,
      "dark": 985,
      "tail": 986,
      "Maybe": 987,
      "worry": 988,
      "gu": 989,
      "Jane": 990,
      "fere": 991,
      "led": 992,
      "differe": 993,
      "ready": 994,
      "feeling": 995,
      "Mr": 996,
      "ign": 997,
      "stand": 998,
      "paper": 999,
      "voice": 1000,
      "ied": 1001,
      "lady": 1002,
      "song": 1003,
      "wel": 1004,
      "isy": 1005,
      "lion": 1006,
      "wood": 1007,
      "cars": 1008,
      "colors": 1009,
      "cried": 1010,
      "Timmy": 1011,
      "farm": 1012,
      "leaves": 1013,
      "tri": 1014,
      "needed": 1015,
      "piece": 1016,
      "turned": 1017,
      "different": 1018,
      "train": 1019,
      "hair": 1020,
      "ike": 1021,
      "hungry": 1022,
      "sweet": 1023,
      "mar": 1024,
      "full": 1025,
      "cked": 1026,
      "tra": 1027,
      "cr": 1028,
      "mou": 1029,
      "does": 1030,
      "friendly": 1031,
      "wet": 1032,
      "prin": 1033,
      "bye": 1034,
      "adventure": 1035,
      "yellow": 1036,
      "mis": 1037,
      "sit": 1038,
      "ient": 1039,
      "ced": 1040,
      "pretend": 1041,
      "din": 1042,
      "touch": 1043,
      "ger": 1044,
      "reac": 1045,
      "broken": 1046,
      "dro": 1047,
      "prom": 1048,
      "med": 1049,
      "land": 1050,
      "All": 1051,
      "andma": 1052,
      "listened": 1053,
      "There": 1054,
      "another": 1055,
      "fl": 1056,
      "thank": 1057,
      "ila": 1058,
      "pen": 1059,
      "swim": 1060,
      "chair": 1061,
      "climbed": 1062,
      "running": 1063,
      "ater": 1064,
      "plan": 1065,
      "smell": 1066,
      "To": 1067,
      "Lila": 1068,
      "word": 1069,
      "gone": 1070,
      "close": 1071,
      "ple": 1072,
      "river": 1073,
      "oon": 1074,
      "gg": 1075,
      "blocks": 1076,
      "wonder": 1077,
      "hold": 1078,
      "reached": 1079,
      "slow": 1080,
      "cool": 1081,
      "only": 1082,
      "dance": 1083,
      "tle": 1084,
      "balloon": 1085,
      "pet": 1086,
      "aby": 1087,
      "ner": 1088,
      "fight": 1089,
      "hide": 1090,
      "bor": 1091,
      "Everyone": 1092,
      "av": 1093,
      "lie": 1094,
      "fair": 1095,
      "glad": 1096,
      "wear": 1097,
      "kay": 1098,
      "hop": 1099,
      "iced": 1100,
      "pushed": 1101,
      "coming": 1102,
      "Just": 1103,
      "goodbye": 1104,
      "bit": 1105,
      "helping": 1106,
      "ward": 1107,
      "ary": 1108,
      "moment": 1109,
      "ered": 1110,
      "sees": 1111,
      "fr": 1112,
      "been": 1113,
      "done": 1114,
      "must": 1115,
      "apple": 1116,
      "window": 1117,
      "dr": 1118,
      "held": 1119,
      "wall": 1120,
      "dirty": 1121,
      "repl": 1122,
      "real": 1123,
      "ins": 1124,
      "quick": 1125,
      "name": 1126,
      "baby": 1127,
      "fall": 1128,
      "bow": 1129,
      "Soon": 1130,
      "explore": 1131,
      "wished": 1132,
      "buy": 1133,
      "stuck": 1134,
      "trying": 1135,
      "snow": 1136,
      "doing": 1137,
      "build": 1138,
      "cast": 1139,
      "might": 1140,
      "ings": 1141,
      "andy": 1142,
      "outed": 1143,
      "through": 1144,
      "rot": 1145,
      "brother": 1146,
      "tiny": 1147,
      "deli": 1148,
      "butterfly": 1149,
      "arm": 1150,
      "aisy": 1151,
      "mi": 1152,
      "looks": 1153,
      "wo": 1154,
      "dream": 1155,
      "spo": 1156,
      "ames": 1157,
      "wag": 1158,
      "three": 1159,
      "swa": 1160,
      "shouted": 1161,
      "scary": 1162,
      "je": 1163,
      "sure": 1164,
      "ppy": 1165,
      "cket": 1166,
      "ield": 1167,
      "replied": 1168,
      "wise": 1169,
      "Be": 1170,
      "left": 1171,
      "year": 1172,
      "bran": 1173,
      "cup": 1174,
      "treat": 1175,
      "reach": 1176,
      "win": 1177,
      "why": 1178,
      "grow": 1179,
      "grabb": 1180,
      "clapped": 1181,
      "mouth": 1182,
      "pulled": 1183,
      "waved": 1184,
      "art": 1185,
      "spl": 1186,
      "em": 1187,
      "pare": 1188,
      "sometimes": 1189,
      "job": 1190,
      "nest": 1191,
      "woods": 1192,
      "bigger": 1193,
      "Inside": 1194,
      "seen": 1195,
      "colorful": 1196,
      "ton": 1197,
      "swam": 1198,
      "Budd": 1199,
      "Buddy": 1200,
      "fill": 1201,
      "cloud": 1202,
      "grabbed": 1203,
      "stayed": 1204,
      "clothe": 1205,
      "lesson": 1206,
      "paint": 1207,
      "Okay": 1208,
      "Oh": 1209,
      "bus": 1210,
      "join": 1211,
      "clothes": 1212,
      "broke": 1213,
      "mat": 1214,
      "zy": 1215,
      "remembered": 1216,
      "Sarah": 1217,
      "vis": 1218,
      "Tommy": 1219,
      "oup": 1220,
      "plant": 1221,
      "pink": 1222,
      "quickly": 1223,
      "row": 1224,
      "tast": 1225,
      "nap": 1226,
      "qui": 1227,
      "Daisy": 1228,
      "anything": 1229,
      "heav": 1230,
      "waited": 1231,
      "noticed": 1232,
      "games": 1233,
      "books": 1234,
      "likes": 1235,
      "castle": 1236,
      "hopped": 1237,
      "pur": 1238,
      "gl": 1239,
      "thre": 1240,
      "gent": 1241,
      "While": 1242,
      "sea": 1243,
      "world": 1244,
      "blew": 1245,
      "mix": 1246,
      "pictures": 1247,
      "bike": 1248,
      "Finally": 1249,
      "alone": 1250,
      "heavy": 1251,
      "erous": 1252,
      "enjoyed": 1253,
      "asure": 1254,
      "dry": 1255,
      "spot": 1256,
      "ucky": 1257,
      "cont": 1258,
      "turns": 1259,
      "live": 1260,
      "pat": 1261,
      "fruit": 1262,
      "tight": 1263,
      "mus": 1264,
      "board": 1265,
      "parent": 1266,
      "gif": 1267,
      "\".": 1268,
      "ather": 1269,
      "forgot": 1270,
      "threw": 1271,
      "Please": 1272,
      "everywhere": 1273,
      "followed": 1274,
      "olly": 1275,
      "ride": 1276,
      "thy": 1277,
      "round": 1278,
      "ju": 1279,
      "black": 1280,
      "white": 1281,
      "makes": 1282,
      "himself": 1283,
      "Joe": 1284,
      "Em": 1285,
      "pre": 1286,
      "sec": 1287,
      "whis": 1288,
      "Billy": 1289,
      "wrong": 1290,
      "ation": 1291,
      "deep": 1292,
      "wi": 1293,
      "di": 1294,
      "cess": 1295,
      "bee": 1296,
      "tower": 1297,
      "whe": 1298,
      "quiet": 1299,
      "stone": 1300,
      "Re": 1301,
      "break": 1302,
      "monster": 1303,
      "stran": 1304,
      "lar": 1305,
      "gi": 1306,
      "oun": 1307,
      "understand": 1308,
      "ba": 1309,
      "faster": 1310,
      "music": 1311,
      "ali": 1312,
      "pi": 1313,
      "ub": 1314,
      "pill": 1315,
      "fully": 1316,
      "stre": 1317,
      "Come": 1318,
      "sis": 1319,
      "wants": 1320,
      "ap": 1321,
      "bowl": 1322,
      "danced": 1323,
      "orange": 1324,
      "mum": 1325,
      "cookies": 1326,
      "leaf": 1327,
      "pro": 1328,
      "sign": 1329,
      "well": 1330,
      "ross": 1331,
      "brought": 1332,
      "someone": 1333,
      "leg": 1334,
      "sister": 1335,
      "ts": 1336,
      "zing": 1337,
      "ance": 1338,
      "Gr": 1339,
      "plane": 1340,
      "cover": 1341,
      "pes": 1342,
      "most": 1343,
      "ued": 1344,
      "ence": 1345,
      "talked": 1346,
      "fur": 1347,
      "finished": 1348,
      "reali": 1349,
      "ph": 1350,
      "flying": 1351,
      "cow": 1352,
      "really": 1353,
      "parents": 1354,
      "itten": 1355,
      "oom": 1356,
      "OK": 1357,
      "poin": 1358,
      "smart": 1359,
      "dinner": 1360,
      "rocks": 1361,
      "hit": 1362,
      "button": 1363,
      "min": 1364,
      "fect": 1365,
      "else": 1366,
      "itch": 1367,
      "worried": 1368,
      "beach": 1369,
      "branch": 1370,
      "secret": 1371,
      "field": 1372,
      "spe": 1373,
      "oth": 1374,
      "contin": 1375,
      "corn": 1376,
      "pig": 1377,
      "sharing": 1378,
      "fox": 1379,
      "silly": 1380,
      "sc": 1381,
      "happen": 1382,
      "cy": 1383,
      "shin": 1384,
      "perfect": 1385,
      "af": 1386,
      "stu": 1387,
      "ses": 1388,
      "pow": 1389,
      "visit": 1390,
      "free": 1391,
      "pieces": 1392,
      "ele": 1393,
      "wish": 1394,
      "today": 1395,
      "smiles": 1396,
      "phone": 1397,
      "snack": 1398,
      "sy": 1399,
      "dang": 1400,
      "pudd": 1401,
      "mud": 1402,
      "filled": 1403,
      "realized": 1404,
      "crab": 1405,
      "carefully": 1406,
      "dren": 1407,
      "creat": 1408,
      "wave": 1409,
      "ildren": 1410,
      "pper": 1411,
      "spr": 1412,
      "eating": 1413,
      "everything": 1414,
      "ctor": 1415,
      "asks": 1416,
      "continued": 1417,
      "gra": 1418,
      "children": 1419,
      "sail": 1420,
      "stead": 1421,
      "words": 1422,
      "hig": 1423,
      "barked": 1424,
      "promised": 1425,
      "imi": 1426,
      "Mimi": 1427,
      "bath": 1428,
      "drag": 1429,
      "itting": 1430,
      "grandma": 1431,
      "pull": 1432,
      "har": 1433,
      "ote": 1434,
      "roll": 1435,
      "blan": 1436,
      "blanket": 1437,
      "sang": 1438,
      "throw": 1439,
      "My": 1440,
      "amp": 1441,
      "appear": 1442,
      "ons": 1443,
      "soup": 1444,
      "laughing": 1445,
      "push": 1446,
      "enough": 1447,
      "moved": 1448,
      "bite": 1449,
      "drink": 1450,
      "rolled": 1451,
      "fairy": 1452,
      "pers": 1453,
      "Jen": 1454,
      "mail": 1455,
      "Some": 1456,
      "crying": 1457,
      "oney": 1458,
      "jar": 1459,
      "pass": 1460,
      "mother": 1461,
      "without": 1462,
      "snake": 1463,
      "dri": 1464,
      "candy": 1465,
      "getting": 1466,
      "boun": 1467,
      "owner": 1468,
      "egg": 1469,
      "ises": 1470,
      "purple": 1471,
      "welcome": 1472,
      "Le": 1473,
      "wagged": 1474,
      "sel": 1475,
      "una": 1476,
      "shoes": 1477,
      "monkey": 1478,
      "apples": 1479,
      "count": 1480,
      "amazing": 1481,
      "doctor": 1482,
      "chool": 1483,
      "cious": 1484,
      "hes": 1485,
      "igg": 1486,
      "money": 1487,
      "icy": 1488,
      "school": 1489,
      "Bl": 1490,
      "pping": 1491,
      "brown": 1492,
      "gift": 1493,
      "closed": 1494,
      "higher": 1495,
      "fan": 1496,
      "althy": 1497,
      "stoo": 1498,
      "shining": 1499,
      "treasure": 1500,
      "Jim": 1501,
      "sitting": 1502,
      "ible": 1503,
      "morning": 1504,
      "shop": 1505,
      "bottle": 1506,
      "Ch": 1507,
      "past": 1508,
      "strange": 1509,
      "lone": 1510,
      "nee": 1511,
      "Fred": 1512,
      "lonely": 1513,
      "smo": 1514,
      "ants": 1515,
      "comfor": 1516,
      "years": 1517,
      "shell": 1518,
      "ated": 1519,
      "talking": 1520,
      "dangerous": 1521,
      "paw": 1522,
      "stood": 1523,
      "lake": 1524,
      "coat": 1525,
      "wings": 1526,
      "runs": 1527,
      "bas": 1528,
      "net": 1529,
      "chee": 1530,
      "mind": 1531,
      "carrot": 1532,
      "letter": 1533,
      "mine": 1534,
      "road": 1535,
      "basket": 1536,
      "teddy": 1537,
      "Emma": 1538,
      "kis": 1539,
      "cks": 1540,
      "living": 1541,
      "caught": 1542,
      "thinks": 1543,
      "va": 1544,
      "idge": 1545,
      "sear": 1546,
      "dragon": 1547,
      "days": 1548,
      "puddle": 1549,
      "delicious": 1550,
      "tasty": 1551,
      "cho": 1552,
      "same": 1553,
      "Together": 1554,
      "belie": 1555,
      "hor": 1556,
      "wards": 1557,
      "start": 1558,
      "ben": 1559,
      "Blue": 1560,
      "wore": 1561,
      "hoped": 1562,
      "Good": 1563,
      "Molly": 1564,
      "bring": 1565,
      "gentle": 1566,
      "kite": 1567,
      "singing": 1568,
      "ches": 1569,
      "finally": 1570,
      "fit": 1571,
      "nose": 1572,
      "herself": 1573,
      "coll": 1574,
      "cray": 1575,
      "card": 1576,
      "bell": 1577,
      "trou": 1578,
      "ughty": 1579,
      "farmer": 1580,
      "naughty": 1581,
      "cour": 1582,
      "unch": 1583,
      "pol": 1584,
      "belong": 1585,
      "Mark": 1586,
      "bush": 1587,
      "Whis": 1588,
      "scream": 1589,
      "uni": 1590,
      "pack": 1591,
      "vill": 1592,
      "woke": 1593,
      "answ": 1594,
      "swings": 1595,
      "Bell": 1596,
      "ng": 1597,
      "course": 1598,
      "hu": 1599,
      "dropped": 1600,
      "Their": 1601,
      "teach": 1602,
      "Grandma": 1603,
      "mach": 1604,
      "zzy": 1605,
      "kn": 1606,
      "nut": 1607,
      "rope": 1608,
      "arri": 1609,
      "fence": 1610,
      "teac": 1611,
      "Remy": 1612,
      "kno": 1613,
      "irth": 1614,
      "kers": 1615,
      "llie": 1616,
      "hiding": 1617,
      "ment": 1618,
      "shelf": 1619,
      "Bella": 1620,
      "robot": 1621,
      "If": 1622,
      "val": 1623,
      "bench": 1624,
      "su": 1625,
      "irthday": 1626,
      "fused": 1627,
      "sli": 1628,
      "erful": 1629,
      "touc": 1630,
      "eleph": 1631,
      "balls": 1632,
      "cheered": 1633,
      "isa": 1634,
      "carry": 1635,
      "Whiskers": 1636,
      "band": 1637,
      "num": 1638,
      "wand": 1639,
      "loom": 1640,
      "Lisa": 1641,
      "promise": 1642,
      "rainbow": 1643,
      "village": 1644,
      "cute": 1645,
      "part": 1646,
      "shook": 1647,
      "irt": 1648,
      "forever": 1649,
      "spid": 1650,
      "neck": 1651,
      "eas": 1652,
      "sounds": 1653,
      "pile": 1654,
      "puppy": 1655,
      "lunch": 1656,
      "wonderful": 1657,
      "Go": 1658,
      "spin": 1659,
      "juice": 1660,
      "ier": 1661,
      "wra": 1662,
      "sack": 1663,
      "twins": 1664,
      "cheese": 1665,
      "des": 1666,
      "orm": 1667,
      "grew": 1668,
      "birthday": 1669,
      "ilk": 1670,
      "street": 1671,
      "touched": 1672,
      "Jill": 1673,
      "seed": 1674,
      "shy": 1675,
      "teacher": 1676,
      "lla": 1677,
      "blem": 1678,
      "problem": 1679,
      "vel": 1680,
      "heart": 1681,
      "shapes": 1682,
      "storm": 1683,
      "seek": 1684,
      "busy": 1685,
      "lay": 1686,
      "milk": 1687,
      "ring": 1688,
      "few": 1689,
      "bread": 1690,
      "cal": 1691,
      "How": 1692,
      "pocket": 1693,
      "arrived": 1694,
      "patient": 1695,
      "cing": 1696,
      "gray": 1697,
      "shake": 1698,
      "dolls": 1699,
      "coin": 1700,
      "Sure": 1701,
      "shad": 1702,
      "feels": 1703,
      "urtle": 1704,
      "spoon": 1705,
      "pop": 1706,
      "stories": 1707,
      "irp": 1708,
      "cave": 1709,
      "ade": 1710,
      "ntain": 1711,
      "appeared": 1712,
      "ucket": 1713,
      "slowly": 1714,
      "helpful": 1715,
      "bucket": 1716,
      "honey": 1717,
      "Later": 1718,
      "believe": 1719,
      "Ann": 1720,
      "ugly": 1721,
      "note": 1722,
      "tea": 1723,
      "noises": 1724,
      "cor": 1725,
      "holding": 1726,
      "add": 1727,
      "towards": 1728,
      "sharp": 1729,
      "late": 1730,
      "ero": 1731,
      "driver": 1732,
      "dist": 1733,
      "zoom": 1734,
      "spider": 1735,
      "umpy": 1736,
      "sug": 1737,
      "upset": 1738,
      "spark": 1739,
      "turtle": 1740,
      "suc": 1741,
      "oose": 1742,
      "bugs": 1743,
      "joke": 1744,
      "berries": 1745,
      "elephant": 1746,
      "mist": 1747,
      "ull": 1748,
      "wheel": 1749,
      "era": 1750,
      "horse": 1751,
      "Pe": 1752,
      "wash": 1753,
      "glow": 1754,
      "magical": 1755,
      "seat": 1756,
      "uce": 1757,
      "meet": 1758,
      "kitten": 1759,
      "rude": 1760,
      "wild": 1761,
      "young": 1762,
      "amazed": 1763,
      "dirt": 1764,
      "comfortable": 1765,
      "splash": 1766,
      "Of": 1767,
      "shr": 1768,
      "den": 1769,
      "cir": 1770,
      "moon": 1771,
      "miss": 1772,
      "bled": 1773,
      "stars": 1774,
      "treats": 1775,
      "Bu": 1776,
      "rag": 1777,
      "hang": 1778,
      "rich": 1779,
      "trip": 1780,
      "fold": 1781,
      "rush": 1782,
      "Leo": 1783,
      "ship": 1784,
      "loth": 1785,
      "jour": 1786,
      "hugs": 1787,
      "princess": 1788,
      "lemon": 1789,
      "taking": 1790,
      "cloth": 1791,
      "shine": 1792,
      "bubb": 1793,
      "lucky": 1794,
      "Daddy": 1795,
      "ti": 1796,
      "cannot": 1797,
      "gen": 1798,
      "ped": 1799,
      "cord": 1800,
      "last": 1801,
      "Hey": 1802,
      "drive": 1803,
      "picy": 1804,
      "wide": 1805,
      "daddy": 1806,
      "tie": 1807,
      "quest": 1808,
      "foot": 1809,
      "sage": 1810,
      "roar": 1811,
      "With": 1812,
      "path": 1813,
      "fighting": 1814,
      "comes": 1815,
      "oven": 1816,
      "bat": 1817,
      "puzz": 1818,
      "Luna": 1819,
      "spicy": 1820,
      "organ": 1821,
      "coun": 1822,
      "ney": 1823,
      "mer": 1824,
      "sick": 1825,
      "life": 1826,
      "craw": 1827,
      "bone": 1828,
      "io": 1829,
      "organi": 1830,
      "Mama": 1831,
      "instead": 1832,
      "resting": 1833,
      "songs": 1834,
      "hidden": 1835,
      "cookie": 1836,
      "ek": 1837,
      "huge": 1838,
      "forget": 1839,
      "fixed": 1840,
      "pillow": 1841,
      "machine": 1842,
      "bri": 1843,
      "taste": 1844,
      "ipp": 1845,
      "rad": 1846,
      "Ro": 1847,
      "pra": 1848,
      "drove": 1849,
      "Mary": 1850,
      "peace": 1851,
      "nod": 1852,
      "stepped": 1853,
      "grab": 1854,
      "thin": 1855,
      "hero": 1856,
      "write": 1857,
      "iling": 1858,
      "circle": 1859,
      "string": 1860,
      "step": 1861,
      "myster": 1862,
      "confused": 1863,
      "wing": 1864,
      "whistle": 1865,
      "change": 1866,
      "suddenly": 1867,
      "inv": 1868,
      "Cat": 1869,
      "smooth": 1870,
      "sticks": 1871,
      "ast": 1872,
      "grate": 1873,
      "erry": 1874,
      "wasn": 1875,
      "boss": 1876,
      "across": 1877,
      "Bird": 1878,
      "inte": 1879,
      "giant": 1880,
      "grateful": 1881,
      "takes": 1882,
      "line": 1883,
      "ye": 1884,
      "war": 1885,
      "grumpy": 1886,
      "smelly": 1887,
      "chased": 1888,
      "selfish": 1889,
      "Chirp": 1890,
      "Ollie": 1891,
      "clouds": 1892,
      "fruits": 1893,
      "ps": 1894,
      "ined": 1895,
      "covered": 1896,
      "pan": 1897,
      "save": 1898,
      "drew": 1899,
      "landed": 1900,
      "queen": 1901,
      "shes": 1902,
      "feather": 1903,
      "dest": 1904,
      "fil": 1905,
      "og": 1906,
      "missed": 1907,
      "beak": 1908,
      "ducks": 1909,
      "loves": 1910,
      "slid": 1911,
      "later": 1912,
      "worm": 1913,
      "snowman": 1914,
      "healthy": 1915,
      "kin": 1916,
      "bought": 1917,
      "messy": 1918,
      "adventures": 1919,
      "sour": 1920,
      "tu": 1921,
      "cage": 1922,
      "lice": 1923,
      "though": 1924,
      "Bunny": 1925,
      "body": 1926,
      "att": 1927,
      "sleepy": 1928,
      "legs": 1929,
      "hope": 1930,
      "da": 1931,
      "Help": 1932,
      "cop": 1933,
      "chick": 1934,
      "fing": 1935,
      "wolf": 1936,
      "ions": 1937,
      "Here": 1938,
      "watching": 1939,
      "dogs": 1940,
      "faces": 1941,
      "Jerry": 1942,
      "along": 1943,
      "rank": 1944,
      "ggy": 1945,
      "seemed": 1946,
      "sheep": 1947,
      "Chirpy": 1948,
      "shirt": 1949,
      "ert": 1950,
      "ars": 1951,
      "rubb": 1952,
      "imag": 1953,
      "sent": 1954,
      "plate": 1955,
      "interesting": 1956,
      "ming": 1957,
      "anyone": 1958,
      "backyard": 1959,
      "gy": 1960,
      "vie": 1961,
      "easy": 1962,
      "Momo": 1963,
      "prote": 1964,
      "Where": 1965,
      "fancy": 1966,
      "gives": 1967,
      "Mum": 1968,
      "gest": 1969,
      "child": 1970,
      "fake": 1971,
      "finish": 1972,
      "mir": 1973,
      "clever": 1974,
      "pty": 1975,
      "empty": 1976,
      "anan": 1977,
      "cape": 1978,
      "working": 1979,
      "elly": 1980,
      "Doggy": 1981,
      "sol": 1982,
      "au": 1983,
      "pool": 1984,
      "explain": 1985,
      "drum": 1986,
      "saved": 1987,
      "pract": 1988,
      "hing": 1989,
      "spray": 1990,
      "neigh": 1991,
      "whole": 1992,
      "arms": 1993,
      "idy": 1994,
      "ont": 1995,
      "nothing": 1996,
      "stair": 1997,
      "spla": 1998,
      "front": 1999,
      "pin": 2000,
      "such": 2001,
      "lift": 2002,
      "yog": 2003,
      "test": 2004,
      "zoo": 2005,
      "banan": 2006,
      "maybe": 2007,
      "trouble": 2008,
      "Are": 2009,
      "iting": 2010,
      "jewel": 2011,
      "si": 2012,
      "ves": 2013,
      "hello": 2014,
      "bridge": 2015,
      "barr": 2016,
      "longer": 2017,
      "embarr": 2018,
      "eag": 2019,
      "wondered": 2020,
      "Will": 2021,
      "embarrass": 2022,
      "bal": 2023,
      "honest": 2024,
      "weak": 2025,
      "rocket": 2026,
      "pizz": 2027,
      "return": 2028,
      "tidy": 2029,
      "scre": 2030,
      "coo": 2031,
      "tom": 2032,
      "kick": 2033,
      "explor": 2034,
      "mistake": 2035,
      "jumping": 2036,
      "smelled": 2037,
      "bossy": 2038,
      "crayons": 2039,
      "asha": 2040,
      "pri": 2041,
      "sco": 2042,
      "onto": 2043,
      "lovely": 2044,
      "puzzle": 2045,
      "ugg": 2046,
      "building": 2047,
      "shout": 2048,
      "cleaned": 2049,
      "large": 2050,
      "colle": 2051,
      "number": 2052,
      "places": 2053,
      "cross": 2054,
      "gently": 2055,
      "erly": 2056,
      "Stop": 2057,
      "pizza": 2058,
      "aser": 2059,
      "ones": 2060,
      "nic": 2061,
      "couch": 2062,
      "prince": 2063,
      "lex": 2064,
      "chicken": 2065,
      "forgive": 2066,
      "ashamed": 2067,
      "tomor": 2068,
      "ughter": 2069,
      "tomorrow": 2070,
      "pretended": 2071,
      "jelly": 2072,
      "brush": 2073,
      "lown": 2074,
      "Jimmy": 2075,
      "search": 2076,
      "gather": 2077,
      "vous": 2078,
      "pointed": 2079,
      "van": 2080,
      "puts": 2081,
      "ned": 2082,
      "daughter": 2083,
      "boring": 2084,
      "stir": 2085,
      "plants": 2086,
      "flag": 2087,
      "swimming": 2088,
      "bounce": 2089,
      "protect": 2090,
      "waiting": 2091,
      "ado": 2092,
      "bul": 2093,
      "Tiny": 2094,
      "eth": 2095,
      "answer": 2096,
      "law": 2097,
      "powerful": 2098,
      "creative": 2099,
      "raid": 2100,
      "scarf": 2101,
      "clear": 2102,
      "afraid": 2103,
      "nervous": 2104,
      "Benny": 2105,
      "wom": 2106,
      "ending": 2107,
      "teeth": 2108,
      "fli": 2109,
      "dig": 2110,
      "pens": 2111,
      "furry": 2112,
      "ress": 2113,
      "ladder": 2114,
      "Sometimes": 2115,
      "woman": 2116,
      "saur": 2117,
      "case": 2118,
      "ually": 2119,
      "calm": 2120,
      "osaur": 2121,
      "deer": 2122,
      "splashed": 2123,
      "ror": 2124,
      "matter": 2125,
      "sandwi": 2126,
      "crown": 2127,
      "sandwich": 2128,
      "cozy": 2129,
      "goes": 2130,
      "respec": 2131,
      "dinosaur": 2132,
      "TV": 2133,
      "Bobby": 2134,
      "hin": 2135,
      "wearing": 2136,
      "match": 2137,
      "clown": 2138,
      "lazy": 2139,
      "Your": 2140,
      "jog": 2141,
      "true": 2142,
      "ail": 2143,
      "tool": 2144,
      "ery": 2145,
      "success": 2146,
      "wha": 2147,
      "stret": 2148,
      "sold": 2149,
      "noisy": 2150,
      "balloons": 2151,
      "berry": 2152,
      "class": 2153,
      "sugar": 2154,
      "person": 2155,
      "ult": 2156,
      "Who": 2157,
      "gun": 2158,
      "screamed": 2159,
      "mirror": 2160,
      "tory": 2161,
      "knee": 2162,
      "mysterious": 2163,
      "cri": 2164,
      "oop": 2165,
      "fear": 2166,
      "nearby": 2167,
      "map": 2168,
      "impress": 2169,
      "gold": 2170,
      "dish": 2171,
      "getable": 2172,
      "ich": 2173,
      "ute": 2174,
      "polite": 2175,
      "vegetable": 2176,
      "carried": 2177,
      "whale": 2178,
      "tape": 2179,
      "boot": 2180,
      "snee": 2181,
      "drank": 2182,
      "tent": 2183,
      "lamp": 2184,
      "motor": 2185,
      "ee": 2186,
      "act": 2187,
      "tries": 2188,
      "Ducky": 2189,
      "tasted": 2190,
      "respect": 2191,
      "Give": 2192,
      "oc": 2193,
      "pensive": 2194,
      "icked": 2195,
      "these": 2196,
      "expensive": 2197,
      "andpa": 2198,
      "hur": 2199,
      "tele": 2200,
      "bald": 2201,
      "soap": 2202,
      "ina": 2203,
      "chocol": 2204,
      "team": 2205,
      "ato": 2206,
      "Jenny": 2207,
      "peaceful": 2208,
      "cand": 2209,
      "picnic": 2210,
      "marble": 2211,
      "feet": 2212,
      "kiss": 2213,
      "ness": 2214,
      "jam": 2215,
      "trust": 2216,
      "Bear": 2217,
      "smiling": 2218,
      "stra": 2219,
      "vide": 2220,
      "mel": 2221,
      "Me": 2222,
      "relie": 2223,
      "hose": 2224,
      "chocolate": 2225,
      "icro": 2226,
      "decor": 2227,
      "ours": 2228,
      "chew": 2229,
      "vase": 2230,
      "generous": 2231,
      "yelled": 2232,
      "bake": 2233,
      "march": 2234,
      "poor": 2235,
      "rare": 2236,
      "Sammy": 2237,
      "sque": 2238,
      "ventually": 2239,
      "embarrassed": 2240,
      "scare": 2241,
      "lace": 2242,
      "mountain": 2243,
      "known": 2244,
      "journey": 2245,
      "lead": 2246,
      "cele": 2247,
      "Andy": 2248,
      "wake": 2249,
      "form": 2250,
      "shadow": 2251,
      "celebr": 2252,
      "balance": 2253,
      "mixed": 2254,
      "weird": 2255,
      "sup": 2256,
      "potato": 2257,
      "chest": 2258,
      "chase": 2259,
      "knocked": 2260,
      "pump": 2261,
      "pay": 2262,
      "dizzy": 2263,
      "fine": 2264,
      "drawing": 2265,
      "rough": 2266,
      "lose": 2267,
      "glue": 2268,
      "hel": 2269,
      "wouldn": 2270,
      "collect": 2271,
      "itter": 2272,
      "mighty": 2273,
      "dancing": 2274,
      "ling": 2275,
      "log": 2276,
      "kicked": 2277,
      "oppy": 2278,
      "shark": 2279,
      "ual": 2280,
      "ighed": 2281,
      "corner": 2282,
      "blow": 2283,
      "feed": 2284,
      "group": 2285,
      "eld": 2286,
      "gate": 2287,
      "gust": 2288,
      "usual": 2289,
      "ignor": 2290,
      "burn": 2291,
      "wagon": 2292,
      "unique": 2293,
      "ian": 2294,
      "fool": 2295,
      "eggs": 2296,
      "which": 2297,
      "rod": 2298,
      "branches": 2299,
      "pair": 2300,
      "neighbor": 2301,
      "clock": 2302,
      "robe": 2303,
      "Ella": 2304,
      "closet": 2305,
      "necklace": 2306,
      "fright": 2307,
      "cab": 2308,
      "painted": 2309,
      "shoe": 2310,
      "inc": 2311,
      "print": 2312,
      "micro": 2313,
      "ten": 2314,
      "spa": 2315,
      "est": 2316,
      "anc": 2317,
      "towel": 2318,
      "bean": 2319,
      "ony": 2320,
      "finding": 2321,
      "incred": 2322,
      "norm": 2323,
      "gas": 2324,
      "cane": 2325,
      "fat": 2326,
      "moms": 2327,
      "alous": 2328,
      "jealous": 2329,
      "normal": 2330,
      "locked": 2331,
      "ancient": 2332,
      "Zoom": 2333,
      "famous": 2334,
      "stubb": 2335,
      "relieved": 2336,
      "cabin": 2337,
      "stairs": 2338,
      "dug": 2339,
      "incredible": 2340,
      "stubborn": 2341,
      "pir": 2342,
      "umble": 2343,
      "frustr": 2344,
      "cher": 2345,
      "ray": 2346,
      "twist": 2347,
      "tells": 2348,
      "gigg": 2349,
      "useful": 2350,
      "spread": 2351,
      "glass": 2352,
      "thick": 2353,
      "breath": 2354,
      "frightened": 2355,
      "barn": 2356,
      "foolish": 2357,
      "cran": 2358,
      "horn": 2359,
      "lin": 2360,
      "elderly": 2361,
      "space": 2362,
      "become": 2363,
      "sors": 2364,
      "understood": 2365,
      "present": 2366,
      "aw": 2367,
      "chang": 2368,
      "dull": 2369,
      "issors": 2370,
      "organized": 2371,
      "cone": 2372,
      "frag": 2373,
      "wrote": 2374,
      "gloom": 2375,
      "guit": 2376,
      "waves": 2377,
      "frustrated": 2378,
      "crane": 2379,
      "terri": 2380,
      "fragile": 2381,
      "wrap": 2382,
      "Little": 2383,
      "bathroom": 2384,
      "exploring": 2385,
      "hoop": 2386,
      "sock": 2387,
      "dead": 2388,
      "sell": 2389,
      "stat": 2390,
      "searched": 2391,
      "tun": 2392,
      "gloomy": 2393,
      "scissors": 2394,
      "whisper": 2395,
      "cart": 2396,
      "hears": 2397,
      "spent": 2398,
      "guitar": 2399,
      "parrot": 2400,
      "pray": 2401,
      "washed": 2402,
      "nail": 2403,
      "bark": 2404,
      "yal": 2405,
      "pepper": 2406,
      "cate": 2407,
      "painting": 2408,
      "toug": 2409,
      "bubbles": 2410,
      "clap": 2411,
      "creature": 2412,
      "unusual": 2413,
      "St": 2414,
      "Rex": 2415,
      "lime": 2416,
      "rat": 2417,
      "toma": 2418,
      "tomato": 2419,
      "swan": 2420,
      "sword": 2421,
      "orry": 2422,
      "taught": 2423,
      "clum": 2424,
      "pumpkin": 2425,
      "Many": 2426,
      "thankful": 2427,
      "measure": 2428,
      "spoiled": 2429,
      "clumsy": 2430,
      "cheap": 2431,
      "ife": 2432,
      "loyal": 2433,
      "owed": 2434,
      "soar": 2435,
      "tough": 2436,
      "iver": 2437,
      "witch": 2438,
      "web": 2439,
      "raven": 2440,
      "umbre": 2441,
      "Mummy": 2442,
      "bers": 2443,
      "fork": 2444,
      "cats": 2445,
      "delicate": 2446,
      "Sorry": 2447,
      "upid": 2448,
      "penc": 2449,
      "ham": 2450,
      "eng": 2451,
      "paws": 2452,
      "nuts": 2453,
      "cube": 2454,
      "fic": 2455,
      "flash": 2456,
      "changed": 2457,
      "asking": 2458,
      "order": 2459,
      "lexible": 2460,
      "frown": 2461,
      "pencil": 2462,
      "Jake": 2463,
      "terrible": 2464,
      "record": 2465,
      "stri": 2466,
      "diffic": 2467,
      "flies": 2468,
      "difficult": 2469,
      "remind": 2470,
      "snacks": 2471,
      "dle": 2472,
      "Today": 2473,
      "stupid": 2474,
      "waff": 2475,
      "exam": 2476,
      "selves": 2477,
      "dove": 2478,
      "ano": 2479,
      "meal": 2480,
      "statue": 2481,
      "piano": 2482,
      "fier": 2483,
      "solve": 2484,
      "bitter": 2485,
      "knife": 2486,
      "enorm": 2487,
      "rose": 2488,
      "fierce": 2489,
      "enormous": 2490,
      "bloom": 2491,
      "yours": 2492,
      "relax": 2493,
      "goat": 2494,
      "flexible": 2495,
      "jung": 2496,
      "exciting": 2497,
      "jungle": 2498,
      "asleep": 2499,
      "vegetables": 2500,
      "value": 2501,
      "supp": 2502,
      "heal": 2503,
      "ity": 2504,
      "unknown": 2505,
      "ident": 2506,
      "wealthy": 2507,
      "inky": 2508,
      "disgust": 2509,
      "counted": 2510,
      "goose": 2511,
      "yourself": 2512,
      "fig": 2513,
      "ular": 2514,
      "yarn": 2515,
      "teas": 2516,
      "wis": 2517,
      "hairy": 2518,
      "res": 2519,
      "ipped": 2520,
      "Pipp": 2521,
      "agree": 2522,
      "shoot": 2523,
      "banana": 2524,
      "umbrella": 2525,
      "island": 2526,
      "joined": 2527,
      "carrots": 2528,
      "adventur": 2529,
      "trick": 2530,
      "crazy": 2531,
      "disgusting": 2532,
      "nosy": 2533,
      "Instead": 2534,
      "iddle": 2535,
      "adventurous": 2536,
      "Polly": 2537,
      "fla": 2538,
      "four": 2539,
      "anut": 2540,
      "inal": 2541,
      "knowing": 2542,
      "lif": 2543,
      "batter": 2544,
      "rise": 2545,
      "arrow": 2546,
      "iginal": 2547,
      "zip": 2548,
      "nods": 2549,
      "sighed": 2550,
      "moving": 2551,
      "dge": 2552,
      "fridge": 2553,
      "ilt": 2554,
      "Br": 2555,
      "wip": 2556,
      "stones": 2557,
      "lu": 2558,
      "acket": 2559,
      "bored": 2560,
      "iant": 2561,
      "smaller": 2562,
      "jacket": 2563,
      "squee": 2564,
      "filthy": 2565,
      "explained": 2566,
      "zard": 2567,
      "aunt": 2568,
      "ator": 2569,
      "original": 2570,
      "beet": 2571,
      "using": 2572,
      "tig": 2573,
      "verse": 2574,
      "almost": 2575,
      "middle": 2576,
      "hats": 2577,
      "press": 2578,
      "prize": 2579,
      "acorn": 2580,
      "sca": 2581,
      "choose": 2582,
      "See": 2583,
      "seeds": 2584,
      "obed": 2585,
      "careless": 2586,
      "igator": 2587,
      "straw": 2588,
      "cro": 2589,
      "thirst": 2590,
      "movie": 2591,
      "lliant": 2592,
      "stuff": 2593,
      "shore": 2594,
      "Ted": 2595,
      "mark": 2596,
      "tank": 2597,
      "medic": 2598,
      "eager": 2599,
      "stal": 2600,
      "kissed": 2601,
      "finger": 2602,
      "obedient": 2603,
      "coura": 2604,
      "brilliant": 2605,
      "mailbox": 2606,
      "erable": 2607,
      "coco": 2608,
      "page": 2609,
      "miserable": 2610,
      "medicine": 2611,
      "harm": 2612,
      "dep": 2613,
      "market": 2614,
      "melon": 2615,
      "belt": 2616,
      "escape": 2617,
      "bottom": 2618,
      "thirsty": 2619,
      "crayon": 2620,
      "Tr": 2621,
      "alligator": 2622,
      "houses": 2623,
      "port": 2624,
      "dough": 2625,
      "sunshine": 2626,
      "spring": 2627,
      "jeep": 2628,
      "successful": 2629,
      "belonged": 2630,
      "del": 2631,
      "mole": 2632,
      "bedroom": 2633,
      "pal": 2634,
      "arage": 2635,
      "garage": 2636,
      "shiver": 2637,
      "helmet": 2638,
      "stage": 2639,
      "gets": 2640,
      "men": 2641,
      "rug": 2642,
      "pasta": 2643,
      "slipped": 2644,
      "Ow": 2645,
      "aero": 2646,
      "crack": 2647,
      "beetle": 2648,
      "cco": 2649,
      "square": 2650,
      "depend": 2651,
      "borrow": 2652,
      "epend": 2653,
      "Emily": 2654,
      "ates": 2655,
      "study": 2656,
      "Brown": 2657,
      "lid": 2658,
      "host": 2659,
      "built": 2660,
      "sport": 2661,
      "haircut": 2662,
      "stove": 2663,
      "iness": 2664,
      "cater": 2665,
      "cocoa": 2666,
      "caterpill": 2667,
      "raced": 2668,
      "triang": 2669,
      "liable": 2670,
      "hurts": 2671,
      "moder": 2672,
      "Buzz": 2673,
      "comb": 2674,
      "suit": 2675,
      "popular": 2676,
      "twig": 2677,
      "sauce": 2678,
      "Even": 2679,
      "independ": 2680,
      "pebb": 2681,
      "engine": 2682,
      "modern": 2683,
      "sunflower": 2684,
      "fearful": 2685,
      "crawled": 2686,
      "tiger": 2687,
      "humble": 2688,
      "jug": 2689,
      "design": 2690,
      "cries": 2691,
      "vest": 2692,
      "spotted": 2693,
      "salad": 2694,
      "ghost": 2695,
      "standing": 2696,
      "True": 2697,
      "oured": 2698,
      "spit": 2699,
      "giving": 2700,
      "figure": 2701,
      "hay": 2702,
      "independent": 2703,
      "sil": 2704,
      "serious": 2705,
      "avo": 2706,
      "reliable": 2707,
      "angel": 2708,
      "playful": 2709,
      "sheet": 2710,
      "impressive": 2711,
      "dependable": 2712,
      "lean": 2713,
      "peanut": 2714,
      "radio": 2715,
      "grace": 2716,
      "seal": 2717,
      "clay": 2718,
      "torn": 2719,
      "cident": 2720,
      "jet": 2721,
      "steal": 2722,
      "troubled": 2723,
      "hammer": 2724,
      "une": 2725,
      "tied": 2726,
      "dolp": 2727,
      "shows": 2728,
      "cheerful": 2729,
      "popcorn": 2730,
      "police": 2731,
      "tic": 2732,
      "shroom": 2733,
      "wrapped": 2734,
      "news": 2735,
      "lk": 2736,
      "rubbed": 2737,
      "lifted": 2738,
      "caterpillar": 2739,
      "anx": 2740,
      "taken": 2741,
      "guess": 2742,
      "runk": 2743,
      "jolly": 2744,
      "mushroom": 2745,
      "aeroplane": 2746,
      "rub": 2747,
      "stum": 2748,
      "pale": 2749,
      "boats": 2750,
      "anxious": 2751,
      "collar": 2752,
      "bull": 2753,
      "nel": 2754,
      "flute": 2755,
      "needs": 2756,
      "licked": 2757,
      "Sus": 2758,
      "uncomfortable": 2759,
      "cean": 2760,
      "brace": 2761,
      "cap": 2762,
      "crystal": 2763,
      "shape": 2764,
      "nder": 2765,
      "rid": 2766,
      "ruined": 2767,
      "ocean": 2768,
      "oin": 2769,
      "stamp": 2770,
      "polish": 2771,
      "ticket": 2772,
      "vio": 2773,
      "chalk": 2774,
      "gue": 2775,
      "env": 2776,
      "Birdy": 2777,
      "flashlight": 2778,
      "tears": 2779,
      "compet": 2780,
      "bracelet": 2781,
      "ountain": 2782,
      "accident": 2783,
      "picks": 2784,
      "inse": 2785,
      "competit": 2786,
      "create": 2787,
      "cer": 2788,
      "mask": 2789,
      "tunnel": 2790,
      "meant": 2791,
      "pige": 2792,
      "ccoli": 2793,
      "hopping": 2794,
      "spill": 2795,
      "cush": 2796,
      "tricks": 2797,
      "harder": 2798,
      "boys": 2799,
      "tooth": 2800,
      "licop": 2801,
      "licopter": 2802,
      "lit": 2803,
      "fountain": 2804,
      "rice": 2805,
      "urkey": 2806,
      "quar": 2807,
      "passion": 2808,
      "fluffy": 2809,
      "deaf": 2810,
      "pants": 2811,
      "ext": 2812,
      "herb": 2813,
      "cact": 2814,
      "trunk": 2815,
      "barber": 2816,
      "tti": 2817,
      "helicopter": 2818,
      "tax": 2819,
      "walks": 2820,
      "helpless": 2821,
      "appoin": 2822,
      "smoke": 2823,
      "office": 2824,
      "toast": 2825,
      "tube": 2826,
      "triangle": 2827,
      "pour": 2828,
      "salt": 2829,
      "llip": 2830,
      "llipop": 2831,
      "broccoli": 2832,
      "pipe": 2833,
      "Next": 2834,
      "turkey": 2835,
      "hoto": 2836,
      "cam": 2837,
      "dile": 2838,
      "gum": 2839,
      "photo": 2840,
      "atch": 2841,
      "lollipop": 2842,
      "vine": 2843,
      "compl": 2844,
      "scale": 2845,
      "mug": 2846,
      "amond": 2847,
      "codile": 2848,
      "power": 2849,
      "violin": 2850,
      "cereal": 2851,
      "hetti": 2852,
      "raft": 2853,
      "aghetti": 2854,
      "diamond": 2855,
      "taxi": 2856,
      "tag": 2857,
      "weet": 2858,
      "roy": 2859,
      "melt": 2860,
      "feathers": 2861,
      "cactus": 2862,
      "pony": 2863,
      "compassion": 2864,
      "disappoin": 2865,
      "speed": 2866,
      "poured": 2867,
      "tellig": 2868,
      "onion": 2869,
      "harmless": 2870,
      "destroy": 2871,
      "intellig": 2872,
      "stronger": 2873,
      "passed": 2874,
      "mes": 2875,
      "ilty": 2876,
      "hip": 2877,
      "guilty": 2878,
      "bees": 2879,
      "cel": 2880,
      "Peter": 2881,
      "candle": 2882,
      "ordin": 2883,
      "steak": 2884,
      "spaghetti": 2885,
      "Pippin": 2886,
      "camera": 2887,
      "comput": 2888,
      "desk": 2889,
      "soldier": 2890,
      "video": 2891,
      "whispered": 2892,
      "ordinary": 2893,
      "happiness": 2894,
      "asses": 2895,
      "thoughtful": 2896,
      "returned": 2897,
      "tem": 2898,
      "yaw": 2899,
      "graceful": 2900,
      "quarrel": 2901,
      "celery": 2902,
      "icycle": 2903,
      "crocodile": 2904,
      "shrimp": 2905,
      "uth": 2906,
      "shade": 2907,
      "deliver": 2908,
      "wheels": 2909,
      "Lu": 2910,
      "bicycle": 2911,
      "tract": 2912,
      "practiced": 2913,
      "scoot": 2914,
      "Fo": 2915,
      "dreams": 2916,
      "serve": 2917,
      "cado": 2918,
      "guard": 2919,
      "persist": 2920,
      "envious": 2921,
      "gifted": 2922,
      "restless": 2923,
      "father": 2924,
      "ubby": 2925,
      "sailed": 2926,
      "gem": 2927,
      "purse": 2928,
      "insect": 2929,
      "load": 2930,
      "helps": 2931,
      "comple": 2932,
      "nur": 2933,
      "cob": 2934,
      "judge": 2935,
      "celebrate": 2936,
      "knot": 2937,
      "comet": 2938,
      "bubble": 2939,
      "intelligent": 2940,
      "shield": 2941,
      "vol": 2942,
      "club": 2943,
      "avocado": 2944,
      "Tina": 2945,
      "attract": 2946,
      "lizard": 2947,
      "friendship": 2948,
      "charm": 2949,
      "computer": 2950,
      "Bye": 2951,
      "forward": 2952,
      "track": 2953,
      "bandage": 2954,
      "pigeon": 2955,
      "Poppy": 2956,
      "numbers": 2957,
      "bulb": 2958,
      "invited": 2959,
      "rem": 2960,
      "acce": 2961,
      "answered": 2962,
      "Pet": 2963,
      "cano": 2964,
      "screen": 2965,
      "disappointed": 2966,
      "cupboard": 2967,
      "mop": 2968,
      "uli": 2969,
      "post": 2970,
      "bushes": 2971,
      "compassionate": 2972,
      "ither": 2973,
      "libr": 2974,
      "squash": 2975,
      "azz": 2976,
      "station": 2977,
      "cushion": 2978,
      "poem": 2979,
      "nicely": 2980,
      "ears": 2981,
      "truth": 2982,
      "float": 2983,
      "persistent": 2984,
      "coins": 2985,
      "penny": 2986,
      "armchair": 2987,
      "counting": 2988,
      "velo": 2989,
      "ased": 2990,
      "attractive": 2991,
      "tern": 2992,
      "boxes": 2993,
      "spun": 2994,
      "Sp": 2995,
      "Alice": 2996,
      "envelo": 2997,
      "trum": 2998,
      "gular": 2999,
      "keeper": 3000,
      "planet": 3001,
      "sink": 3002,
      "wiped": 3003,
      "Pete": 3004,
      "pit": 3005,
      "half": 3006,
      "atient": 3007,
      "yogurt": 3008,
      "charming": 3009,
      "regular": 3010,
      "muff": 3011,
      "prune": 3012,
      "needle": 3013,
      "yoga": 3014,
      "trumpet": 3015,
      "rode": 3016,
      "volcano": 3017,
      "Dan": 3018,
      "hipp": 3019,
      "competitive": 3020,
      "hun": 3021,
      "stream": 3022,
      "crawl": 3023,
      "sleeping": 3024,
      "eventually": 3025,
      "peach": 3026,
      "wheat": 3027,
      "ignorant": 3028,
      "roof": 3029,
      "themselves": 3030,
      "Rose": 3031,
      "hippo": 3032,
      "decide": 3033,
      "travel": 3034,
      "diary": 3035,
      "learning": 3036,
      "sle": 3037,
      "tap": 3038,
      "glasses": 3039,
      "questions": 3040,
      "bump": 3041,
      "thie": 3042,
      "base": 3043,
      "tray": 3044,
      "spell": 3045,
      "shells": 3046,
      "edy": 3047,
      "happening": 3048,
      "oil": 3049,
      "question": 3050,
      "gathered": 3051,
      "mitten": 3052,
      "eraser": 3053,
      "leo": 3054,
      "uncle": 3055,
      "impatient": 3056,
      "chubby": 3057,
      "pard": 3058,
      "pattern": 3059,
      "harsh": 3060,
      "aff": 3061,
      "pine": 3062,
      "yach": 3063,
      "thread": 3064,
      "distant": 3065,
      "cooked": 3066,
      "behave": 3067,
      "ador": 3068,
      "sau": 3069,
      "carpet": 3070,
      "magnet": 3071,
      "impro": 3072,
      "sausage": 3073,
      "Susie": 3074,
      "lying": 3075,
      "louder": 3076,
      "adorable": 3077,
      "flea": 3078,
      "oat": 3079,
      "sort": 3080,
      "yacht": 3081,
      "alert": 3082,
      "saying": 3083,
      "excite": 3084,
      "laughs": 3085,
      "stretch": 3086,
      "packed": 3087,
      "lively": 3088,
      "scat": 3089,
      "thus": 3090,
      "?\".": 3091,
      "nurse": 3092,
      "leopard": 3093,
      "tummy": 3094,
      "enthus": 3095,
      "scatter": 3096,
      "kne": 3097,
      "homes": 3098,
      "scooter": 3099,
      "chor": 3100,
      "edge": 3101,
      "pear": 3102,
      "glove": 3103,
      "golf": 3104,
      "envelope": 3105,
      "radish": 3106,
      "pebble": 3107,
      "Mis": 3108,
      "Is": 3109,
      "forth": 3110,
      "dolphin": 3111,
      "skin": 3112,
      "tire": 3113,
      "spital": 3114,
      "dom": 3115,
      "hospital": 3116,
      "math": 3117,
      "grown": 3118,
      "affe": 3119,
      "oby": 3120,
      "spinning": 3121,
      "mill": 3122,
      "week": 3123,
      "cleaning": 3124,
      "distur": 3125,
      "Bet": 3126,
      "playground": 3127,
      "root": 3128,
      "jellyfish": 3129,
      "ribb": 3130,
      "notebook": 3131,
      "slept": 3132,
      "Tweet": 3133,
      "chess": 3134,
      "cobweb": 3135,
      "oak": 3136,
      "essie": 3137,
      "thief": 3138,
      "repair": 3139,
      "bounced": 3140,
      "telephone": 3141,
      "calling": 3142,
      "snif": 3143,
      "scr": 3144,
      "speak": 3145,
      "Lo": 3146,
      "mild": 3147,
      "fre": 3148,
      "anchor": 3149,
      "film": 3150,
      "decorate": 3151,
      "Well": 3152,
      "cycle": 3153,
      "parade": 3154,
      "skip": 3155,
      "metal": 3156,
      "manag": 3157,
      "deter": 3158,
      "bathe": 3159,
      "stic": 3160,
      "hunter": 3161,
      "hook": 3162,
      "staff": 3163,
      "meat": 3164,
      "added": 3165,
      "Rob": 3166,
      "dust": 3167,
      "urtain": 3168,
      "cricket": 3169,
      "bin": 3170,
      "nament": 3171,
      "kayak": 3172,
      "determin": 3173,
      "curtain": 3174,
      "support": 3175,
      "dive": 3176,
      "disappeared": 3177,
      "send": 3178,
      "seem": 3179,
      "showing": 3180,
      "loudly": 3181,
      "ject": 3182,
      "isted": 3183,
      "hall": 3184,
      "ornament": 3185,
      "walls": 3186,
      "whenever": 3187,
      "lives": 3188,
      "screw": 3189,
      "courage": 3190,
      "nal": 3191,
      "yet": 3192,
      "drawer": 3193,
      "wire": 3194,
      "spear": 3195,
      "journal": 3196,
      "waffle": 3197,
      "Wa": 3198,
      "split": 3199,
      "fed": 3200,
      "football": 3201,
      "lood": 3202,
      "perform": 3203,
      "giraffe": 3204,
      "buttons": 3205,
      "drop": 3206,
      "shut": 3207,
      "makeup": 3208,
      "once": 3209,
      "missile": 3210,
      "eye": 3211,
      "pole": 3212,
      "skipped": 3213,
      "drawings": 3214,
      "cauli": 3215,
      "tripped": 3216,
      "five": 3217,
      "lights": 3218,
      "suggest": 3219,
      "shel": 3220,
      "barrel": 3221,
      "firework": 3222,
      "steps": 3223,
      "Mandy": 3224,
      "reading": 3225,
      "earth": 3226,
      "Kim": 3227,
      "illa": 3228,
      "skull": 3229,
      "means": 3230,
      "pointing": 3231,
      "scope": 3232,
      "Zip": 3233,
      "zag": 3234,
      "leash": 3235,
      "iastic": 3236,
      "handle": 3237,
      "Toby": 3238,
      "enthusiastic": 3239,
      "chain": 3240,
      "mixer": 3241,
      "folder": 3242,
      "Wait": 3243,
      "bags": 3244,
      "falls": 3245,
      "glowing": 3246,
      "vet": 3247,
      "fireman": 3248,
      "vator": 3249,
      "unk": 3250,
      "biggest": 3251,
      "spend": 3252,
      "elevator": 3253,
      "sailor": 3254,
      "coal": 3255,
      "brothers": 3256,
      "library": 3257,
      "cauliflower": 3258,
      "city": 3259,
      "zi": 3260,
      "trucks": 3261,
      "brea": 3262,
      "trap": 3263,
      "tro": 3264,
      "loop": 3265,
      "Car": 3266,
      "kindness": 3267,
      "driving": 3268,
      "sneeze": 3269,
      "pirate": 3270,
      "message": 3271,
      "troph": 3272,
      "knight": 3273,
      "igzag": 3274,
      "oy": 3275,
      "Mar": 3276,
      "repe": 3277,
      "ceed": 3278,
      "package": 3279,
      "modest": 3280,
      "memor": 3281,
      "miner": 3282,
      "topus": 3283,
      "complain": 3284,
      "Sunny": 3285,
      "complete": 3286,
      "utes": 3287,
      "son": 3288,
      "either": 3289,
      "offe": 3290,
      "pengu": 3291,
      "offee": 3292,
      "Spike": 3293,
      "basketball": 3294,
      "ache": 3295,
      "zebra": 3296,
      "tho": 3297,
      "tear": 3298,
      "maze": 3299,
      "barking": 3300,
      "battery": 3301,
      "hive": 3302,
      "toile": 3303,
      "struc": 3304,
      "mineral": 3305,
      "wife": 3306,
      "Grandpa": 3307,
      "succeed": 3308,
      "leton": 3309,
      "keleton": 3310,
      "blackboard": 3311,
      "octopus": 3312,
      "Lulu": 3313,
      "poke": 3314,
      "Li": 3315,
      "cli": 3316,
      "ey": 3317,
      "gri": 3318,
      "goal": 3319,
      "marry": 3320,
      "managed": 3321,
      "weep": 3322,
      "costu": 3323,
      "toilet": 3324,
      "costume": 3325,
      "switch": 3326,
      "giggled": 3327,
      "flame": 3328,
      "powder": 3329,
      "motorcycle": 3330,
      "grandpa": 3331,
      "knows": 3332,
      "minutes": 3333,
      "People": 3334,
      "az": 3335,
      "ni": 3336,
      "itself": 3337,
      "uring": 3338,
      "rolling": 3339,
      "Miss": 3340,
      "unlock": 3341,
      "trophy": 3342,
      "ilot": 3343,
      "hedge": 3344,
      "veil": 3345,
      "sunglasses": 3346,
      "whist": 3347,
      "camp": 3348,
      "thinking": 3349,
      "view": 3350,
      "temple": 3351,
      "ctory": 3352,
      "factory": 3353,
      "shocked": 3354,
      "mint": 3355,
      "Al": 3356,
      "often": 3357,
      "picking": 3358,
      "cooler": 3359,
      "cups": 3360,
      "wishes": 3361,
      "rushed": 3362,
      "aid": 3363,
      "cable": 3364,
      "super": 3365,
      "imagine": 3366,
      "skeleton": 3367,
      "growl": 3368,
      "ugged": 3369,
      "urch": 3370,
      "coffee": 3371,
      "clu": 3372,
      "slides": 3373,
      "laser": 3374,
      "pun": 3375,
      "fort": 3376,
      "pee": 3377,
      "size": 3378,
      "Did": 3379,
      "gain": 3380,
      "poon": 3381,
      "jokes": 3382,
      "bulance": 3383,
      "ambulance": 3384,
      "crib": 3385,
      "adow": 3386,
      "church": 3387,
      "stumbled": 3388,
      "oyster": 3389,
      "iron": 3390,
      "htray": 3391,
      "trail": 3392,
      "sity": 3393,
      "flour": 3394,
      "determined": 3395,
      "tion": 3396,
      "vend": 3397,
      "meadow": 3398,
      "pilot": 3399,
      "reverse": 3400,
      "wardrobe": 3401,
      "file": 3402,
      "tuna": 3403,
      "grapes": 3404,
      "zer": 3405,
      "safely": 3406,
      "telling": 3407,
      "vendor": 3408,
      "Would": 3409,
      "thunder": 3410,
      "novel": 3411,
      "discovered": 3412,
      "Mrs": 3413,
      "frame": 3414,
      "umber": 3415,
      "quit": 3416,
      "avail": 3417,
      "stranger": 3418,
      "muffin": 3419,
      "sof": 3420,
      "teaspoon": 3421,
      "cooking": 3422,
      "sandbox": 3423,
      "tornado": 3424,
      "holds": 3425,
      "mp": 3426,
      "mummy": 3427,
      "juicy": 3428,
      "cardboard": 3429,
      "remain": 3430,
      "hours": 3431,
      "available": 3432,
      "gor": 3433,
      "htub": 3434,
      "bathtub": 3435,
      "Bessie": 3436,
      "Frog": 3437,
      "microscope": 3438,
      "surf": 3439,
      "listening": 3440,
      "Before": 3441,
      "bikes": 3442,
      "seum": 3443,
      "museum": 3444,
      "early": 3445,
      "spilled": 3446,
      "doors": 3447,
      "realised": 3448,
      "suppl": 3449,
      "palace": 3450,
      "those": 3451,
      "reward": 3452,
      "ashtray": 3453,
      "magaz": 3454,
      "stack": 3455,
      "trem": 3456,
      "opera": 3457,
      "pretending": 3458,
      "dess": 3459,
      "trash": 3460,
      "hurry": 3461,
      "Betty": 3462,
      "taller": 3463,
      "whip": 3464,
      "sweater": 3465,
      "pressed": 3466,
      "sne": 3467,
      "wic": 3468,
      "napkin": 3469,
      "valu": 3470,
      "wiches": 3471,
      "chim": 3472,
      "towers": 3473,
      "sandwiches": 3474,
      "practice": 3475,
      "already": 3476,
      "hotel": 3477,
      "medal": 3478,
      "oats": 3479,
      "Or": 3480,
      "chimney": 3481,
      "blin": 3482,
      "skirt": 3483,
      "strawberry": 3484,
      "hut": 3485,
      "rhin": 3486,
      "uel": 3487,
      "shrink": 3488,
      "ature": 3489,
      "falling": 3490,
      "ucet": 3491,
      "Teddy": 3492,
      "separ": 3493,
      "check": 3494,
      "cards": 3495,
      "beep": 3496,
      "bury": 3497,
      "marched": 3498,
      "tools": 3499,
      "baseball": 3500,
      "freezer": 3501,
      "por": 3502,
      "sight": 3503,
      "ito": 3504,
      "tol": 3505,
      "tress": 3506,
      "iction": 3507,
      "laun": 3508,
      "lotion": 3509,
      "Snow": 3510,
      "ictionary": 3511,
      "ately": 3512,
      "spir": 3513,
      "excitement": 3514,
      "istol": 3515,
      "!\".": 3516,
      "faucet": 3517,
      "silver": 3518,
      "wander": 3519,
      "rece": 3520,
      "cherries": 3521,
      "laundry": 3522,
      "washer": 3523,
      "popped": 3524,
      "sub": 3525,
      "squito": 3526,
      "enjoying": 3527,
      "Pandy": 3528,
      "lumber": 3529,
      "colour": 3530,
      "opens": 3531,
      "short": 3532,
      "fastest": 3533,
      "dreamed": 3534,
      "calend": 3535,
      "improve": 3536,
      "xy": 3537,
      "anda": 3538,
      "ended": 3539,
      "mosquito": 3540,
      "stops": 3541,
      "eros": 3542,
      "pistol": 3543,
      "weigh": 3544,
      "Everywhere": 3545,
      "fingers": 3546,
      "mas": 3547,
      "otter": 3548,
      "attach": 3549,
      "zipper": 3550,
      "Sop": 3551,
      "aky": 3552,
      "jewelry": 3553,
      "Soph": 3554,
      "helper": 3555,
      "pinch": 3556,
      "oceros": 3557,
      "cabinet": 3558,
      "gorilla": 3559,
      "calendar": 3560,
      "cows": 3561,
      "dictionary": 3562,
      "ense": 3563,
      "gging": 3564,
      "hanger": 3565,
      "wallet": 3566,
      "dishwasher": 3567,
      "mattress": 3568,
      "attic": 3569,
      "wool": 3570,
      "vision": 3571,
      "hanging": 3572,
      "may": 3573,
      "mbo": 3574,
      "names": 3575,
      "shelter": 3576,
      "enny": 3577,
      "mbol": 3578,
      "Co": 3579,
      "task": 3580,
      "happier": 3581,
      "carto": 3582,
      "stretched": 3583,
      "belongs": 3584,
      "ik": 3585,
      "ival": 3586,
      "sty": 3587,
      "fest": 3588,
      "sla": 3589,
      "sses": 3590,
      "organize": 3591,
      "boots": 3592,
      "resist": 3593,
      "bel": 3594,
      "sparkly": 3595,
      "dessert": 3596,
      "cheer": 3597,
      "fis": 3598,
      "obile": 3599,
      "roared": 3600,
      "television": 3601,
      "fog": 3602,
      "butterflies": 3603,
      "inde": 3604,
      "umb": 3605,
      "pastry": 3606,
      "rhinoceros": 3607,
      "festival": 3608,
      "airport": 3609,
      "trains": 3610,
      "symbol": 3611,
      "valuable": 3612,
      "Ouch": 3613,
      "igloo": 3614,
      "allowed": 3615,
      "offered": 3616,
      "tomobile": 3617,
      "Un": 3618,
      "bill": 3619,
      "notice": 3620,
      "discover": 3621,
      "fireplace": 3622,
      "papers": 3623,
      "comm": 3624,
      "pleased": 3625,
      "tightly": 3626,
      "automobile": 3627,
      "buck": 3628,
      "vice": 3629,
      "arry": 3630,
      "alarm": 3631,
      "distance": 3632,
      "microphone": 3633,
      "newspaper": 3634,
      "shaking": 3635,
      "object": 3636,
      "point": 3637,
      "spirit": 3638,
      "inclu": 3639,
      "Johnny": 3640,
      "stirred": 3641,
      "birdcage": 3642,
      "frogs": 3643,
      "mule": 3644,
      "grill": 3645,
      "waste": 3646,
      "growing": 3647,
      "knob": 3648,
      "neat": 3649,
      "shamp": 3650,
      "creek": 3651,
      "circles": 3652,
      "shampoo": 3653,
      "pas": 3654,
      "climbing": 3655,
      "swinging": 3656,
      "zes": 3657,
      "holes": 3658,
      "porch": 3659,
      "Boun": 3660,
      "hoc": 3661,
      "hockey": 3662,
      "arian": 3663,
      "mustache": 3664,
      "fuel": 3665,
      "letters": 3666,
      "bananas": 3667,
      "int": 3668,
      "cell": 3669,
      "lands": 3670,
      "patch": 3671,
      "Have": 3672,
      "hic": 3673,
      "vehic": 3674,
      "stared": 3675,
      "tub": 3676,
      "anyway": 3677,
      "chose": 3678,
      "gasped": 3679,
      "disturb": 3680,
      "Binky": 3681,
      "axe": 3682,
      "subway": 3683,
      "junk": 3684,
      "rake": 3685,
      "Lee": 3686,
      "accidentally": 3687,
      "poked": 3688,
      "against": 3689,
      "bathrobe": 3690,
      "Freddy": 3691,
      "carrying": 3692,
      "passport": 3693,
      "sounded": 3694,
      "human": 3695,
      "peeked": 3696,
      "Ru": 3697,
      "weather": 3698,
      "snap": 3699,
      "winter": 3700,
      "ribbon": 3701,
      "leaving": 3702,
      "brick": 3703,
      "magazine": 3704,
      "drain": 3705,
      "penguin": 3706,
      "noon": 3707,
      "Lola": 3708,
      "billboard": 3709,
      "Buzzy": 3710,
      "lic": 3711,
      "lawn": 3712,
      "Bow": 3713,
      "ination": 3714,
      "reco": 3715,
      "wipe": 3716,
      "iki": 3717,
      "fisher": 3718,
      "disappear": 3719,
      "sofa": 3720,
      "recog": 3721,
      "lightning": 3722,
      "dar": 3723,
      "peek": 3724,
      "stickers": 3725,
      "erator": 3726,
      "refr": 3727,
      "igerator": 3728,
      "spoke": 3729,
      "refrigerator": 3730,
      "advice": 3731,
      "These": 3732,
      "anywhere": 3733,
      "rubber": 3734,
      "gym": 3735,
      "lend": 3736,
      "gear": 3737,
      "bove": 3738,
      "beef": 3739,
      "accept": 3740,
      "nature": 3741,
      "extra": 3742,
      "jumps": 3743,
      "resc": 3744,
      "shower": 3745,
      "rescue": 3746,
      "above": 3747,
      "raz": 3748,
      "twir": 3749,
      "alley": 3750,
      "sweetie": 3751,
      "pedal": 3752,
      "Dave": 3753,
      "tutor": 3754,
      "wigg": 3755,
      "bookshelf": 3756,
      "breakfast": 3757,
      "blinked": 3758,
      "fisherman": 3759,
      "bent": 3760,
      "painter": 3761,
      "recogni": 3762,
      "chance": 3763,
      "astic": 3764,
      "suff": 3765,
      "hate": 3766,
      "cted": 3767,
      "theater": 3768,
      "older": 3769,
      "repeat": 3770,
      "refused": 3771,
      "unpack": 3772,
      "apr": 3773,
      "starts": 3774,
      "blueberries": 3775,
      "squirrels": 3776,
      "searching": 3777,
      "Big": 3778,
      "ga": 3779,
      "razor": 3780,
      "tease": 3781,
      "quiz": 3782,
      "respectful": 3783,
      "soil": 3784,
      "planes": 3785,
      "buckle": 3786,
      "Boo": 3787,
      "tick": 3788,
      "structure": 3789,
      "Pau": 3790,
      "strugg": 3791,
      "swamp": 3792,
      "Kiki": 3793,
      "ium": 3794,
      "musician": 3795,
      "zoomed": 3796,
      "Ellie": 3797,
      "display": 3798,
      "chairs": 3799,
      "pastel": 3800,
      "fresh": 3801,
      "Sun": 3802,
      "ured": 3803,
      "spade": 3804,
      "choice": 3805,
      "Jazz": 3806,
      "Red": 3807,
      "wre": 3808,
      "rules": 3809,
      "aced": 3810,
      "imagined": 3811,
      "Olive": 3812,
      "ahead": 3813,
      "ison": 3814,
      "ady": 3815,
      "caring": 3816,
      "label": 3817,
      "doesn": 3818,
      "leaned": 3819,
      "riding": 3820,
      "oh": 3821,
      "aked": 3822,
      "ost": 3823,
      "grand": 3824,
      "trade": 3825,
      "grape": 3826,
      "superhero": 3827,
      "ummer": 3828,
      "bookcase": 3829,
      "cuss": 3830,
      "castles": 3831,
      "unite": 3832,
      "uage": 3833,
      "blouse": 3834,
      "anguage": 3835,
      "valley": 3836,
      "reg": 3837,
      "admi": 3838,
      "classroom": 3839,
      "cliff": 3840,
      "jail": 3841,
      "sunset": 3842,
      "country": 3843,
      "aur": 3844,
      "language": 3845,
      "proudly": 3846,
      "restaur": 3847,
      "discuss": 3848,
      "lawy": 3849,
      "suggested": 3850,
      "happens": 3851,
      "restaurant": 3852,
      "chamber": 3853,
      "comfort": 3854,
      "knock": 3855,
      "Sophie": 3856,
      "license": 3857,
      "restore": 3858,
      "argue": 3859,
      "cared": 3860,
      "separate": 3861,
      "invite": 3862,
      "enter": 3863,
      "problems": 3864,
      "excitedly": 3865,
      "vehicle": 3866,
      "admire": 3867,
      "Eventually": 3868,
      "surre": 3869,
      "ations": 3870,
      "squeeze": 3871,
      "favour": 3872,
      "uniform": 3873,
      "warned": 3874,
      "fant": 3875,
      "furn": 3876,
      "iture": 3877,
      "dreaming": 3878,
      "uggage": 3879,
      "furniture": 3880,
      "luggage": 3881,
      "vroom": 3882,
      "recomm": 3883,
      "finds": 3884,
      "puddles": 3885,
      "ricane": 3886,
      "shouts": 3887,
      "Whe": 3888,
      "reinde": 3889,
      "ignore": 3890,
      "introd": 3891,
      "mistakes": 3892,
      "ighted": 3893,
      "frowned": 3894,
      "summer": 3895,
      "player": 3896,
      "model": 3897,
      "fro": 3898,
      "lect": 3899,
      "veal": 3900,
      "swung": 3901,
      "reef": 3902,
      "favourite": 3903,
      "reveal": 3904,
      "ostrich": 3905,
      "delighted": 3906,
      "wine": 3907,
      "perfu": 3908,
      "reindeer": 3909,
      "pages": 3910,
      "Wel": 3911,
      "plastic": 3912,
      "windows": 3913,
      "slipper": 3914,
      "Welcome": 3915,
      "brightly": 3916,
      "Bill": 3917,
      "Wo": 3918,
      "panda": 3919,
      "stable": 3920,
      "regret": 3921,
      "slippery": 3922,
      "bend": 3923,
      "vy": 3924,
      "surprises": 3925,
      "perfume": 3926,
      "cur": 3927,
      "ines": 3928,
      "ceiling": 3929,
      "dancer": 3930,
      "Ready": 3931,
      "lawyer": 3932,
      "Pat": 3933,
      "incre": 3934,
      "chasing": 3935,
      "Bubb": 3936,
      "grabs": 3937,
      "massage": 3938,
      "apron": 3939,
      "hurricane": 3940,
      "leak": 3941,
      "monkeys": 3942,
      "kneel": 3943,
      "mall": 3944,
      "sticker": 3945,
      "prevent": 3946,
      "throwing": 3947,
      "delay": 3948,
      "reminded": 3949,
      "Paul": 3950,
      "adium": 3951,
      "forgave": 3952,
      "aroo": 3953,
      "stadium": 3954,
      "sadly": 3955,
      "angaroo": 3956,
      "Dolly": 3957,
      "fought": 3958,
      "adm": 3959,
      "missing": 3960,
      "liday": 3961,
      "Spe": 3962,
      "shovel": 3963,
      "sneezed": 3964,
      "asis": 3965,
      "holiday": 3966,
      "dishes": 3967,
      "freeze": 3968,
      "slip": 3969,
      "keeping": 3970,
      "wreck": 3971,
      "Mike": 3972,
      "kangaroo": 3973,
      "lab": 3974,
      "fixing": 3975,
      "plates": 3976,
      "handed": 3977,
      "gran": 3978,
      "oasis": 3979,
      "image": 3980,
      "sunrise": 3981,
      "steam": 3982,
      "yield": 3983,
      "supply": 3984,
      "Happ": 3985,
      "evening": 3986,
      "appl": 3987,
      "spoil": 3988,
      "softly": 3989,
      "given": 3990,
      "dem": 3991,
      "claw": 3992,
      "Because": 3993,
      "pushing": 3994,
      "warning": 3995,
      "demand": 3996,
      "cudd": 3997,
      "erc": 3998,
      "surrender": 3999,
      "Lilly": 4000,
      "ase": 4001,
      "remove": 4002,
      "dear": 4003,
      "giggle": 4004,
      "ating": 4005,
      "lions": 4006,
      "ranch": 4007,
      "Char": 4008,
      "Su": 4009,
      "putting": 4010,
      "iest": 4011,
      "prepare": 4012,
      "provide": 4013,
      "Gig": 4014,
      "poison": 4015,
      "mystery": 4016,
      "copper": 4017,
      "shakes": 4018,
      "Zoomy": 4019,
      "heads": 4020,
      "feelings": 4021,
      "Happy": 4022,
      "End": 4023,
      "suffer": 4024,
      "raise": 4025,
      "Dog": 4026,
      "shone": 4027,
      "pushes": 4028,
      "apo": 4029,
      "sniffed": 4030,
      "saving": 4031,
      "Danny": 4032,
      "Gigi": 4033,
      "Yay": 4034,
      "cation": 4035,
      "Under": 4036,
      "inarian": 4037,
      "replace": 4038,
      "terinarian": 4039,
      "veterinarian": 4040,
      "panic": 4041,
      "Maria": 4042,
      "colourful": 4043,
      "navy": 4044,
      "chickens": 4045,
      "infant": 4046,
      "meas": 4047,
      "perm": 4048,
      "Yuck": 4049,
      "kinds": 4050,
      "pup": 4051,
      "sudden": 4052,
      "clapping": 4053,
      "expec": 4054,
      "meeting": 4055,
      "impressed": 4056,
      "Grace": 4057,
      "dare": 4058,
      "ience": 4059,
      "Cl": 4060,
      "gro": 4061,
      "harbor": 4062,
      "barks": 4063,
      "bumped": 4064,
      "smells": 4065,
      "points": 4066,
      "pulls": 4067,
      "rained": 4068,
      "admired": 4069,
      "ometer": 4070,
      "yawned": 4071,
      "Woof": 4072,
      "tip": 4073,
      "hter": 4074,
      "laughter": 4075,
      "steel": 4076,
      "unhappy": 4077,
      "parts": 4078,
      "muscle": 4079,
      "exerc": 4080,
      "hoping": 4081,
      "icky": 4082,
      "squeezed": 4083,
      "Elly": 4084,
      "splashing": 4085,
      "imed": 4086,
      "shivering": 4087,
      "Alex": 4088,
      "ener": 4089,
      "orge": 4090,
      "ddy": 4091,
      "breaks": 4092,
      "permit": 4093,
      "sticky": 4094,
      "coats": 4095,
      "Carl": 4096,
      "chan": 4097,
      "meowed": 4098,
      "shoulder": 4099,
      "rec": 4100,
      "matches": 4101,
      "aud": 4102,
      "nes": 4103,
      "throws": 4104,
      "menu": 4105,
      "Ge": 4106,
      "nation": 4107,
      "eaten": 4108,
      "tracks": 4109,
      "sprayed": 4110,
      "marbles": 4111,
      "..": 4112,
      "event": 4113,
      "cakes": 4114,
      "thanks": 4115,
      "Joey": 4116,
      "Shar": 4117,
      "beg": 4118,
      "weap": 4119,
      "breathe": 4120,
      "applaud": 4121,
      "socks": 4122,
      "mometer": 4123,
      "thermometer": 4124,
      "second": 4125,
      "sandcastle": 4126,
      "cherry": 4127,
      "ince": 4128,
      "history": 4129,
      "somewhere": 4130,
      "poppy": 4131,
      "minute": 4132,
      "recommend": 4133,
      "George": 4134,
      "brighter": 4135,
      "vacation": 4136,
      "trusted": 4137,
      "Bounce": 4138,
      "zigzag": 4139,
      "choo": 4140,
      "network": 4141,
      "rail": 4142,
      "streng": 4143,
      "sparkled": 4144,
      "flapped": 4145,
      "ues": 4146,
      "invit": 4147,
      "sie": 4148,
      "ason": 4149,
      "Hen": 4150,
      "mention": 4151,
      "Speedy": 4152,
      "strength": 4153,
      "crash": 4154,
      "scold": 4155,
      "delight": 4156,
      "skill": 4157,
      "score": 4158,
      "Qu": 4159,
      "raining": 4160,
      "swee": 4161,
      "drops": 4162,
      "cheek": 4163,
      "horses": 4164,
      "bears": 4165,
      "imagination": 4166,
      "Coco": 4167,
      "letting": 4168,
      "sigh": 4169,
      "waving": 4170,
      "buzz": 4171,
      "badly": 4172,
      "spots": 4173,
      "shopkeeper": 4174,
      "claws": 4175,
      "writing": 4176,
      "daisy": 4177,
      "Bubbles": 4178,
      "brain": 4179,
      "theart": 4180,
      "ween": 4181,
      "stomach": 4182,
      "rooms": 4183,
      "pirates": 4184,
      "prunes": 4185,
      "alive": 4186,
      "tide": 4187,
      "between": 4188,
      "strip": 4189,
      "punish": 4190,
      "chirp": 4191,
      "crossed": 4192,
      "expect": 4193,
      "tour": 4194,
      "safar": 4195,
      "thumb": 4196,
      "greedy": 4197,
      "prayed": 4198,
      "Charlie": 4199,
      "flood": 4200,
      "calls": 4201,
      "sir": 4202,
      "placed": 4203,
      "scratch": 4204,
      "Sandy": 4205,
      "reci": 4206,
      "ire": 4207,
      "safari": 4208,
      "Sque": 4209,
      "pigs": 4210,
      "strike": 4211,
      "chanic": 4212,
      "rabbits": 4213,
      "content": 4214,
      "beans": 4215,
      "explored": 4216,
      "Henry": 4217,
      "Pip": 4218,
      "toe": 4219,
      "starting": 4220,
      "bouncing": 4221,
      "counter": 4222,
      "sweetheart": 4223,
      "Ho": 4224,
      "Kate": 4225,
      "settle": 4226,
      "Mill": 4227,
      "boo": 4228,
      "stud": 4229,
      "believed": 4230,
      "yawn": 4231,
      "bother": 4232,
      "mission": 4233,
      "Pa": 4234,
      "quake": 4235,
      "weapon": 4236,
      "snugg": 4237,
      "universe": 4238,
      "burned": 4239,
      "examine": 4240,
      "apolo": 4241,
      "First": 4242,
      "Wed": 4243,
      "Wigg": 4244,
      "myself": 4245,
      "spike": 4246,
      "Wednes": 4247,
      "hy": 4248,
      "Pinky": 4249,
      "mechanic": 4250,
      "leather": 4251,
      "floated": 4252,
      "ingred": 4253,
      "paid": 4254,
      "ingredient": 4255,
      "request": 4256,
      "Annie": 4257,
      "shrugged": 4258,
      "sting": 4259,
      "energy": 4260,
      "ially": 4261,
      "insisted": 4262,
      "danger": 4263,
      "neighb": 4264,
      "inking": 4265,
      "checked": 4266,
      "Wednesday": 4267,
      "equ": 4268,
      "riage": 4269,
      "entered": 4270,
      "ignored": 4271,
      "cartoon": 4272,
      "Harry": 4273,
      "Not": 4274,
      "versity": 4275,
      "hopes": 4276,
      "teaching": 4277,
      "lip": 4278,
      "soak": 4279,
      "whistled": 4280,
      "espec": 4281,
      "waffles": 4282,
      "May": 4283,
      "marriage": 4284,
      "blowing": 4285,
      "earthquake": 4286,
      "backpack": 4287,
      "Bee": 4288,
      "ler": 4289,
      "beauty": 4290,
      "hills": 4291,
      "jogged": 4292,
      "Whenever": 4293,
      "learnt": 4294,
      "university": 4295,
      "bang": 4296,
      "yucky": 4297,
      "upstairs": 4298,
      "price": 4299,
      "Froggy": 4300,
      "bling": 4301,
      "introduce": 4302,
      "exercise": 4303,
      "blink": 4304,
      "afternoon": 4305,
      "lecture": 4306,
      "Wiggly": 4307,
      "hearts": 4308,
      "Hoppy": 4309,
      "cky": 4310,
      "follows": 4311,
      "Ju": 4312,
      "pitch": 4313,
      "rhy": 4314,
      "racing": 4315,
      "excla": 4316,
      "easily": 4317,
      "nobody": 4318,
      "increase": 4319,
      "luck": 4320,
      "twis": 4321,
      "Follow": 4322,
      "memory": 4323,
      "include": 4324,
      "Millie": 4325,
      "napped": 4326,
      "moves": 4327,
      "thm": 4328,
      "sprink": 4329,
      "eagerly": 4330,
      "exclaimed": 4331,
      "Tilly": 4332,
      "gling": 4333,
      "baking": 4334,
      "Sh": 4335,
      "tug": 4336,
      "chore": 4337,
      "ingredients": 4338,
      "twisty": 4339,
      "hood": 4340,
      "below": 4341,
      "twisted": 4342,
      "ipment": 4343,
      "equipment": 4344,
      "digg": 4345,
      "zero": 4346,
      "washing": 4347,
      "especially": 4348,
      "rhythm": 4349,
      "kisses": 4350,
      "bricks": 4351,
      "Owl": 4352,
      "solved": 4353,
      "Papa": 4354,
      "apologi": 4355,
      "digging": 4356,
      "exper": 4357,
      "palm": 4358,
      "encourage": 4359,
      "urge": 4360,
      "puzzles": 4361,
      "bey": 4362,
      "rested": 4363,
      "tremble": 4364,
      "xygen": 4365,
      "tch": 4366,
      "planned": 4367,
      "deeper": 4368,
      "slap": 4369,
      "Ruby": 4370,
      "poss": 4371,
      "Fox": 4372,
      "kitty": 4373,
      "Finn": 4374,
      "sizes": 4375,
      "candles": 4376,
      "Sunday": 4377,
      "Sharing": 4378,
      "observe": 4379,
      "served": 4380,
      "folded": 4381,
      "acorns": 4382,
      "Snowy": 4383,
      "chores": 4384,
      "Zara": 4385,
      "Finny": 4386,
      "mailman": 4387,
      "recognize": 4388,
      "snail": 4389,
      "pulling": 4390,
      "Bluey": 4391,
      "lemons": 4392,
      "muddy": 4393,
      "heat": 4394,
      "dressed": 4395,
      "growled": 4396,
      "Suzy": 4397,
      "pted": 4398,
      "reaches": 4399,
      "attent": 4400,
      "wisdom": 4401,
      "memories": 4402,
      "Zo": 4403,
      "resp": 4404,
      "following": 4405,
      "potatoes": 4406,
      "Mag": 4407,
      "Mitten": 4408,
      "Watch": 4409,
      "mare": 4410,
      "argu": 4411,
      "paused": 4412,
      "offer": 4413,
      "winning": 4414,
      "Penny": 4415,
      "Goodbye": 4416,
      "strawberries": 4417,
      "nightmare": 4418,
      "Lucky": 4419,
      "heel": 4420,
      "fallen": 4421,
      "visited": 4422,
      "oranges": 4423,
      "bouncy": 4424,
      "receive": 4425,
      "struggle": 4426,
      "attention": 4427,
      "Mittens": 4428,
      "xu": 4429,
      "ris": 4430,
      "blood": 4431,
      "quite": 4432,
      "Chicky": 4433,
      "Hop": 4434,
      "blankets": 4435,
      "luxu": 4436,
      "James": 4437,
      "Sk": 4438,
      "ucked": 4439,
      "wink": 4440,
      "dresses": 4441,
      "ffic": 4442,
      "Everything": 4443,
      "quietly": 4444,
      "shouting": 4445,
      "release": 4446,
      "Remember": 4447,
      "Liz": 4448,
      "worms": 4449,
      "ptain": 4450,
      "wags": 4451,
      "Tues": 4452,
      "aking": 4453,
      "hon": 4454,
      "atta": 4455,
      "vanished": 4456,
      "scrat": 4457,
      "llen": 4458,
      "printer": 4459,
      "apart": 4460,
      "famil": 4461,
      "sailing": 4462,
      "lemonade": 4463,
      "landscape": 4464,
      "invitation": 4465,
      "ifi": 4466,
      "disagree": 4467,
      "crow": 4468,
      "chewed": 4469,
      "snuggled": 4470,
      "Gre": 4471,
      "Sur": 4472,
      "worth": 4473,
      "pets": 4474,
      "Sm": 4475,
      "allow": 4476,
      "weight": 4477,
      "further": 4478,
      "pinched": 4479,
      "tomatoes": 4480,
      "jazz": 4481,
      "ups": 4482,
      "petal": 4483,
      "Each": 4484,
      "Yum": 4485,
      "ideas": 4486,
      "sorts": 4487,
      "hurting": 4488,
      "pillows": 4489,
      "sits": 4490,
      "oper": 4491,
      "closely": 4492,
      "neighbour": 4493,
      "possible": 4494,
      "gues": 4495,
      "elephants": 4496,
      "waist": 4497,
      "climbs": 4498,
      "beha": 4499,
      "meow": 4500,
      "appreci": 4501,
      "Rac": 4502,
      "Tuna": 4503,
      "blueberry": 4504,
      "Fifi": 4505,
      "wob": 4506,
      "hadn": 4507,
      "created": 4508,
      "awe": 4509,
      "plays": 4510,
      "Squeaky": 4511,
      "oxygen": 4512,
      "zipped": 4513,
      "traffic": 4514,
      "velvet": 4515,
      "warn": 4516,
      "ding": 4517,
      "mm": 4518,
      "mice": 4519,
      "nce": 4520,
      "buried": 4521,
      "underground": 4522,
      "wagging": 4523,
      "seeing": 4524,
      "exit": 4525,
      "gifts": 4526,
      "baked": 4527,
      "wandered": 4528,
      "luxury": 4529,
      "prints": 4530,
      "easier": 4531,
      "scolded": 4532,
      "Mo": 4533,
      "watered": 4534,
      "peanuts": 4535,
      "Tuesday": 4536,
      "Tony": 4537,
      "toes": 4538,
      "operation": 4539,
      "King": 4540,
      "bru": 4541,
      "bby": 4542,
      "rect": 4543,
      "omed": 4544,
      "Baby": 4545,
      "cery": 4546,
      "difference": 4547,
      "Star": 4548,
      "grocery": 4549,
      "mama": 4550,
      "beam": 4551,
      "simp": 4552,
      "sterday": 4553,
      "planted": 4554,
      "accepted": 4555,
      "simple": 4556,
      "dried": 4557,
      "hi": 4558,
      "manage": 4559,
      "muscles": 4560,
      "skills": 4561,
      "Frank": 4562,
      "seats": 4563,
      "Zigzag": 4564,
      "ooped": 4565,
      "paints": 4566,
      "worse": 4567,
      "brings": 4568,
      "shined": 4569,
      "Surpr": 4570,
      "hers": 4571,
      "kingdom": 4572,
      "weeping": 4573,
      "Mor": 4574,
      "licks": 4575,
      "shouldn": 4576,
      "destroyed": 4577,
      "Clara": 4578,
      "Milly": 4579,
      "during": 4580,
      "tore": 4581,
      "signs": 4582,
      "attached": 4583,
      "scattered": 4584,
      "breaking": 4585,
      "padd": 4586,
      "reeze": 4587,
      "treasures": 4588,
      "Moral": 4589,
      "medi": 4590,
      "twirled": 4591,
      "kicking": 4592,
      "vanish": 4593,
      "Always": 4594,
      "mediately": 4595,
      "snapped": 4596,
      "fireworks": 4597,
      "vic": 4598,
      "floating": 4599,
      "Beep": 4600,
      "gazed": 4601,
      "Rachel": 4602,
      "ived": 4603,
      "sliding": 4604,
      "couraged": 4605,
      "gloves": 4606,
      "six": 4607,
      "creatures": 4608,
      "Both": 4609,
      "uses": 4610,
      "cutting": 4611,
      "slice": 4612,
      "Pr": 4613,
      "Ste": 4614,
      "rang": 4615,
      "comed": 4616,
      "trapped": 4617,
      "forgotten": 4618,
      "petals": 4619,
      "raised": 4620,
      "ruin": 4621,
      "welcomed": 4622,
      "balan": 4623,
      "straight": 4624,
      "relaxed": 4625,
      "Ok": 4626,
      "Slow": 4627,
      "bones": 4628,
      "ccer": 4629,
      "wed": 4630,
      "captain": 4631,
      "Rosie": 4632,
      "!'": 4633,
      "nies": 4634,
      "God": 4635,
      "bab": 4636,
      "bites": 4637,
      "understanding": 4638,
      "style": 4639,
      "since": 4640,
      "shot": 4641,
      "appro": 4642,
      "spoons": 4643,
      "selling": 4644,
      "Din": 4645,
      "soccer": 4646,
      "permission": 4647,
      "collected": 4648,
      "Smith": 4649,
      "Che": 4650,
      "lung": 4651,
      "drinks": 4652,
      "celebrated": 4653,
      "omeday": 4654,
      "Rab": 4655,
      "resu": 4656,
      "married": 4657,
      "stitch": 4658,
      "nowhere": 4659,
      "printed": 4660,
      "patterns": 4661,
      "dared": 4662,
      "golden": 4663,
      "stuffed": 4664,
      "pears": 4665,
      "jogging": 4666,
      "catching": 4667,
      "bowed": 4668,
      "received": 4669,
      "Surprise": 4670,
      "result": 4671,
      "winner": 4672,
      "Zoe": 4673,
      "twink": 4674,
      "beds": 4675,
      "sings": 4676,
      "grant": 4677,
      "someday": 4678,
      "west": 4679,
      "costum": 4680,
      "collection": 4681,
      "victory": 4682,
      "costumes": 4683,
      "sidewalk": 4684,
      "hits": 4685,
      "roots": 4686,
      "pupil": 4687,
      "Rabbit": 4688,
      "season": 4689,
      "mixing": 4690,
      "guessed": 4691,
      "\",": 4692,
      "inch": 4693,
      "presents": 4694,
      "Je": 4695,
      "Out": 4696,
      "urged": 4697,
      "grin": 4698,
      "Its": 4699,
      "wiggle": 4700,
      "!\",": 4701,
      "warmth": 4702,
      "hest": 4703,
      "unlocked": 4704,
      "fetch": 4705,
      "acked": 4706,
      "iggy": 4707,
      "Kat": 4708,
      "ents": 4709,
      "tongue": 4710,
      "Spark": 4711,
      "bur": 4712,
      "olive": 4713,
      "aches": 4714,
      "perfor": 4715,
      "trave": 4716,
      "Someone": 4717,
      "fortun": 4718,
      "acted": 4719,
      "Thanks": 4720,
      "voices": 4721,
      "Something": 4722,
      "Meow": 4723,
      "mentioned": 4724,
      "Like": 4725,
      "kins": 4726,
      "isn": 4727,
      "immediately": 4728,
      "perfectly": 4729,
      "However": 4730,
      "punished": 4731,
      "none": 4732,
      "ashion": 4733,
      "shock": 4734,
      "decorations": 4735,
      "teasing": 4736,
      "herbs": 4737,
      "theirs": 4738,
      "icing": 4739,
      "Mi": 4740,
      "lets": 4741,
      "amaze": 4742,
      "fields": 4743,
      "begged": 4744,
      "sters": 4745,
      "otion": 4746,
      "moments": 4747,
      "emer": 4748,
      "ah": 4749,
      "sorting": 4750,
      "disagreed": 4751,
      "kneeled": 4752,
      "amazement": 4753,
      "Wally": 4754,
      "mbers": 4755,
      "tonight": 4756,
      "Ha": 4757,
      "Ke": 4758,
      "breeze": 4759,
      "rust": 4760,
      "sorted": 4761,
      "mouths": 4762,
      "olives": 4763,
      "napping": 4764,
      "ipping": 4765,
      "highest": 4766,
      "flap": 4767,
      "Uncle": 4768,
      "gie": 4769,
      "iers": 4770,
      "melted": 4771,
      "sneak": 4772,
      "encouraged": 4773,
      "opin": 4774,
      "bleed": 4775,
      "jewels": 4776,
      "suppo": 4777,
      "sniff": 4778,
      "revealed": 4779,
      "Ye": 4780,
      "girls": 4781,
      "marks": 4782,
      "fortunately": 4783,
      "bak": 4784,
      "ded": 4785,
      "fashion": 4786,
      "drinking": 4787,
      "soldiers": 4788,
      "remained": 4789,
      "Spl": 4790,
      "gers": 4791,
      "ruck": 4792,
      "prepar": 4793,
      "Ex": 4794,
      "lined": 4795,
      "playtime": 4796,
      "Our": 4797,
      "ging": 4798,
      "tled": 4799,
      "thri": 4800,
      "members": 4801,
      "lines": 4802,
      "obey": 4803,
      "ruler": 4804,
      "chewing": 4805,
      "melting": 4806,
      "experience": 4807,
      "tucked": 4808,
      "ys": 4809,
      "Dr": 4810,
      "For": 4811,
      "fishing": 4812,
      "rides": 4813,
      "sip": 4814,
      "ishes": 4815,
      "decis": 4816,
      "screams": 4817,
      "hurried": 4818,
      "marching": 4819,
      "Put": 4820,
      "youth": 4821,
      "Pepper": 4822,
      "eagle": 4823,
      "Robby": 4824,
      "lips": 4825,
      "ago": 4826,
      "laid": 4827,
      "spaceship": 4828,
      "sprinkles": 4829,
      "supposed": 4830,
      "rr": 4831,
      "invest": 4832,
      "lick": 4833,
      "surround": 4834,
      "skipping": 4835,
      "ringing": 4836,
      "babies": 4837,
      "Aunt": 4838,
      "Joy": 4839,
      "Birdie": 4840,
      "stirring": 4841,
      "silence": 4842,
      "Dino": 4843,
      "investig": 4844,
      "owned": 4845,
      "twin": 4846,
      "measured": 4847,
      "brushes": 4848,
      "motion": 4849,
      "utter": 4850,
      "importance": 4851,
      "Stay": 4852,
      "peaches": 4853,
      "works": 4854,
      "aded": 4855,
      "colours": 4856,
      "twigs": 4857,
      "chip": 4858,
      "dads": 4859,
      "watches": 4860,
      "sparkle": 4861,
      "whistling": 4862,
      "Splash": 4863,
      "bank": 4864,
      "cartoons": 4865,
      "investigate": 4866,
      "ached": 4867,
      "turning": 4868,
      "Really": 4869,
      "poems": 4870,
      "behaved": 4871,
      "ordered": 4872,
      "succeeded": 4873,
      "Yummy": 4874,
      "sid": 4875,
      "alright": 4876,
      "lap": 4877,
      "runch": 4878,
      "challen": 4879,
      "threat": 4880,
      "broom": 4881,
      "ppers": 4882,
      "achie": 4883,
      "quack": 4884,
      "studied": 4885,
      "Prin": 4886,
      "hesit": 4887,
      "Toto": 4888,
      "'.": 4889,
      "collecting": 4890,
      "recorded": 4891,
      "Maggie": 4892,
      "pies": 4893,
      "waits": 4894,
      "settled": 4895,
      "contest": 4896,
      "tickle": 4897,
      "scratched": 4898,
      "approached": 4899,
      "--": 4900,
      "lily": 4901,
      "mister": 4902,
      "spiders": 4903,
      "trips": 4904,
      "Friend": 4905,
      "Moo": 4906,
      "tex": 4907,
      "sore": 4908,
      "headed": 4909,
      "matched": 4910,
      "strangers": 4911,
      "stamps": 4912,
      "appreciate": 4913,
      ".'": 4914,
      "admir": 4915,
      "keys": 4916,
      "setting": 4917,
      "bringing": 4918,
      "gency": 4919,
      "burning": 4920,
      "Lizzy": 4921,
      "texture": 4922,
      "east": 4923,
      "Ray": 4924,
      "Those": 4925,
      "ms": 4926,
      "soaked": 4927,
      "seesaw": 4928,
      "offic": 4929,
      "flat": 4930,
      "praised": 4931,
      "ripped": 4932,
      "boom": 4933,
      "rocking": 4934,
      "Squ": 4935,
      "grey": 4936,
      "worker": 4937,
      "secrets": 4938,
      "glowed": 4939,
      "measuring": 4940,
      "Spr": 4941,
      "crunch": 4942,
      "sisters": 4943,
      "area": 4944,
      "chef": 4945,
      "direct": 4946,
      "piles": 4947,
      "Unfortunately": 4948,
      "Quick": 4949,
      "Mir": 4950,
      "fut": 4951,
      "tugged": 4952,
      "future": 4953,
      "Josh": 4954,
      "bridges": 4955,
      "shooting": 4956,
      "Princess": 4957,
      "bun": 4958,
      "rubbing": 4959,
      "happiest": 4960,
      "trembling": 4961,
      "beamed": 4962,
      "woof": 4963,
      "Leave": 4964,
      "stealing": 4965,
      "families": 4966,
      "Keep": 4967,
      "Abig": 4968,
      "peel": 4969,
      "touching": 4970,
      "Stitch": 4971,
      "gained": 4972,
      "tails": 4973,
      "sweeties": 4974,
      "soared": 4975,
      "pearl": 4976,
      "slapped": 4977,
      "precious": 4978,
      "Rocky": 4979,
      "tickets": 4980,
      "emergency": 4981,
      "Abigail": 4982,
      "draws": 4983,
      "ladybug": 4984,
      "pebbles": 4985,
      "disturbed": 4986,
      "pedals": 4987,
      "Slowly": 4988,
      "thrilled": 4989,
      "irts": 4990,
      "bravely": 4991,
      "shopping": 4992,
      "respons": 4993,
      "Flo": 4994,
      "Jan": 4995,
      "goodnight": 4996,
      "keeps": 4997,
      "snowball": 4998,
      "answers": 4999,
      "wanting": 5000,
      "toss": 5001,
      "eats": 5002,
      "Mmm": 5003,
      "dam": 5004,
      "nie": 5005,
      "hated": 5006,
      "slim": 5007,
      "naps": 5008,
      "sparkling": 5009,
      "dinosaurs": 5010,
      "neighborhood": 5011,
      "eight": 5012,
      "tricked": 5013,
      "alien": 5014,
      "frosting": 5015,
      "Hold": 5016,
      "Mouse": 5017,
      "ids": 5018,
      "foods": 5019,
      "sled": 5020,
      "zooming": 5021,
      "chirped": 5022,
      "challenge": 5023,
      "En": 5024,
      "cus": 5025,
      "scaring": 5026,
      "cones": 5027,
      "firemen": 5028,
      "wooden": 5029,
      "clearing": 5030,
      "Dav": 5031,
      "Vel": 5032,
      "fer": 5033,
      "len": 5034,
      "antly": 5035,
      "Being": 5036,
      "Pippa": 5037,
      "Velvet": 5038,
      "Sn": 5039,
      "Sad": 5040,
      "ites": 5041,
      "ided": 5042,
      "downstairs": 5043,
      "pouring": 5044,
      "planets": 5045,
      "struggled": 5046,
      "lier": 5047,
      "poking": 5048,
      "cracked": 5049,
      "wonders": 5050,
      "wizard": 5051,
      "studying": 5052,
      "fy": 5053,
      "decides": 5054,
      "strings": 5055,
      "nicer": 5056,
      "remembers": 5057,
      "united": 5058,
      "shadows": 5059,
      "limes": 5060,
      "curled": 5061,
      "Steve": 5062,
      "Achoo": 5063,
      "Take": 5064,
      "tastes": 5065,
      "Gogo": 5066,
      "sneaked": 5067,
      "vor": 5068,
      "remote": 5069,
      "slimy": 5070,
      "By": 5071,
      "Cla": 5072,
      "Jam": 5073,
      "beat": 5074,
      "weighed": 5075,
      "monsters": 5076,
      "Katie": 5077,
      "Spring": 5078,
      "crunchy": 5079,
      "Jess": 5080,
      "pride": 5081,
      "contain": 5082,
      "heroes": 5083,
      "nails": 5084,
      "wiggled": 5085,
      "De": 5086,
      "sen": 5087,
      "struck": 5088,
      "belly": 5089,
      "safety": 5090,
      "powers": 5091,
      "Mira": 5092,
      "crashed": 5093,
      "knelt": 5094,
      "recognized": 5095,
      "ef": 5096,
      "osity": 5097,
      "ric": 5098,
      "opening": 5099,
      "knights": 5100,
      "ities": 5101,
      "loe": 5102,
      "Time": 5103,
      "splashes": 5104,
      "zen": 5105,
      "ren": 5106,
      "staying": 5107,
      "claps": 5108,
      "scooped": 5109,
      "leader": 5110,
      "loaded": 5111,
      "mittens": 5112,
      "Get": 5113,
      "dot": 5114,
      "Hippy": 5115,
      "rescu": 5116,
      "gaze": 5117,
      "honk": 5118,
      "sides": 5119,
      "Bug": 5120,
      "uggling": 5121,
      "loose": 5122,
      "machines": 5123,
      "decision": 5124,
      "kindly": 5125,
      "Water": 5126,
      "sadness": 5127,
      "sneaky": 5128,
      "buzzing": 5129,
      "Zero": 5130,
      "brushed": 5131,
      "hissed": 5132,
      "Beth": 5133,
      "Julie": 5134,
      "Friends": 5135,
      "rings": 5136,
      "anytime": 5137,
      "pupp": 5138,
      "acting": 5139,
      "earlier": 5140,
      "deser": 5141,
      "giraffes": 5142,
      "pastels": 5143,
      "grinned": 5144,
      "officer": 5145,
      "Cra": 5146,
      "yum": 5147,
      "safer": 5148,
      "fied": 5149,
      "tallest": 5150,
      "snowballs": 5151,
      "diving": 5152,
      "opinion": 5153,
      "bleeding": 5154,
      "Ally": 5155,
      "Abby": 5156,
      "Nina": 5157,
      "vies": 5158,
      "refu": 5159,
      "othing": 5160,
      "admiring": 5161,
      "Dare": 5162,
      "esca": 5163,
      "isten": 5164,
      "crawling": 5165,
      "dolph": 5166,
      "granted": 5167,
      "demanded": 5168,
      "David": 5169,
      "anna": 5170,
      "ads": 5171,
      "smallest": 5172,
      "Behind": 5173,
      "seems": 5174,
      "Listen": 5175,
      "pots": 5176,
      "movies": 5177,
      "comp": 5178,
      "Chloe": 5179,
      "agreement": 5180,
      "Jeff": 5181,
      "Ear": 5182,
      "Two": 5183,
      "whatever": 5184,
      "spraying": 5185,
      "decorated": 5186,
      "tim": 5187,
      "stro": 5188,
      "beside": 5189,
      "loving": 5190,
      "covery": 5191,
      "chases": 5192,
      "continue": 5193,
      "dragged": 5194,
      "dragons": 5195,
      "radishes": 5196,
      "polishing": 5197,
      "ising": 5198,
      "youn": 5199,
      "discovery": 5200,
      "repeated": 5201,
      "escaped": 5202,
      "struggling": 5203,
      "matching": 5204,
      "stripes": 5205,
      "arguing": 5206,
      "traveled": 5207,
      "rele": 5208,
      "learns": 5209,
      "parties": 5210,
      "yesterday": 5211,
      "Fish": 5212,
      "pause": 5213,
      "buckets": 5214,
      "cuddled": 5215,
      "apologize": 5216,
      "Kids": 5217,
      "peered": 5218,
      "sunlight": 5219,
      "hardly": 5220,
      "yelling": 5221,
      "curiosity": 5222,
      "roaring": 5223,
      "actions": 5224,
      "teased": 5225,
      "frozen": 5226,
      "dolphins": 5227,
      "Lou": 5228,
      "rs": 5229,
      "stare": 5230,
      "lied": 5231,
      "wherever": 5232,
      "polished": 5233,
      "folding": 5234,
      "neighbors": 5235,
      "bloomed": 5236,
      "muffins": 5237,
      "bunnies": 5238,
      "dies": 5239,
      "roses": 5240,
      "hugging": 5241,
      "cub": 5242,
      "writes": 5243,
      "pretends": 5244,
      "proper": 5245,
      "apologized": 5246,
      "Cara": 5247,
      "Di": 5248,
      "Ziggy": 5249,
      "die": 5250,
      "doggy": 5251,
      "stom": 5252,
      "ourselves": 5253,
      "joyed": 5254,
      "roads": 5255,
      "organizing": 5256,
      "videos": 5257,
      "goals": 5258,
      "chips": 5259,
      "Bop": 5260,
      "El": 5261,
      "indy": 5262,
      "overjoyed": 5263,
      "situ": 5264,
      "protected": 5265,
      "reminder": 5266,
      "argued": 5267,
      "Oli": 5268,
      "Uh": 5269,
      "nets": 5270,
      "expected": 5271,
      "kites": 5272,
      "flutter": 5273,
      "wondering": 5274,
      "siren": 5275,
      "Jones": 5276,
      "Ma": 5277,
      "tasks": 5278,
      "urry": 5279,
      "comfy": 5280,
      "Everyday": 5281,
      "helmets": 5282,
      "ribbons": 5283,
      "Exc": 5284,
      "beard": 5285,
      "stron": 5286,
      "creation": 5287,
      "Claire": 5288,
      "Silly": 5289,
      "actu": 5290,
      "visiting": 5291,
      "comforted": 5292,
      "cin": 5293,
      "iggling": 5294,
      "rol": 5295,
      "rocked": 5296,
      "stored": 5297,
      "zookeeper": 5298,
      "responsible": 5299,
      "Nan": 5300,
      "Olly": 5301,
      "shirts": 5302,
      "catches": 5303,
      "control": 5304,
      "Foxy": 5305,
      "actually": 5306,
      "tions": 5307,
      "sew": 5308,
      "fault": 5309,
      "wrist": 5310,
      "dipped": 5311,
      "packing": 5312,
      "horns": 5313,
      "shivered": 5314,
      "sighs": 5315,
      "prepared": 5316,
      "joking": 5317,
      "acti": 5318,
      "prov": 5319,
      "Blink": 5320,
      "released": 5321,
      "Run": 5322,
      "died": 5323,
      "peppers": 5324,
      "stole": 5325,
      "exact": 5326,
      "spending": 5327,
      "realize": 5328,
      "scrubbed": 5329,
      "patiently": 5330,
      "flavor": 5331,
      "photos": 5332,
      "Earth": 5333,
      "activ": 5334,
      "During": 5335,
      "Po": 5336,
      "hunt": 5337,
      "wasted": 5338,
      "sobb": 5339,
      "caut": 5340,
      "gotten": 5341,
      "prettie": 5342,
      "darker": 5343,
      "purred": 5344,
      "copy": 5345,
      "Sky": 5346,
      "prettiest": 5347,
      "paintings": 5348,
      "guest": 5349,
      "improved": 5350,
      "Green": 5351,
      "aster": 5352,
      "removed": 5353,
      "playroom": 5354,
      "weed": 5355,
      "steep": 5356,
      "crabs": 5357,
      "pockets": 5358,
      "towels": 5359,
      "completed": 5360,
      "Chew": 5361,
      "tles": 5362,
      "outdoors": 5363,
      "peas": 5364,
      "parked": 5365,
      "soaring": 5366,
      "Enjoy": 5367,
      "Bree": 5368,
      "Pu": 5369,
      "fas": 5370,
      "onwards": 5371,
      "truly": 5372,
      "crumb": 5373,
      "glitter": 5374,
      "arrive": 5375,
      "healed": 5376,
      "weeks": 5377,
      "wedding": 5378,
      "baker": 5379,
      "Jamie": 5380,
      "Nothing": 5381,
      "cough": 5382,
      "smar": 5383,
      "cuts": 5384,
      "drives": 5385,
      "grandmother": 5386,
      "Bad": 5387,
      "nect": 5388,
      "inda": 5389,
      "ica": 5390,
      "airplane": 5391,
      "teaches": 5392,
      "mountains": 5393,
      "cuddle": 5394,
      "Dizzy": 5395,
      "wid": 5396,
      "starfish": 5397,
      "sparkles": 5398,
      "Quack": 5399,
      "Kay": 5400,
      "vi": 5401,
      "instruc": 5402,
      "onge": 5403,
      "seven": 5404,
      "adult": 5405,
      "mane": 5406,
      "Anne": 5407,
      "sponge": 5408,
      "reply": 5409,
      "wires": 5410,
      "cubes": 5411,
      "Try": 5412,
      "crept": 5413,
      "smiley": 5414,
      "stretching": 5415,
      "cheering": 5416,
      "awake": 5417,
      "chat": 5418,
      "bottles": 5419,
      "satis": 5420,
      "promises": 5421,
      "petted": 5422,
      "piggy": 5423,
      "rockets": 5424,
      "dusty": 5425,
      "twirl": 5426,
      "Wis": 5427,
      "tang": 5428,
      "conf": 5429,
      "jamas": 5430,
      "...": 5431,
      "Wisdom": 5432,
      "Henny": 5433,
      "thorn": 5434,
      "buildings": 5435,
      "avocados": 5436,
      "surrounded": 5437,
      "Squirrel": 5438,
      "Oliver": 5439,
      "exactly": 5440,
      "Sha": 5441,
      "patience": 5442,
      "snakes": 5443,
      "Catty": 5444,
      "practicing": 5445,
      "batteries": 5446,
      "balancing": 5447,
      "ining": 5448,
      "cost": 5449,
      "perched": 5450,
      "screaming": 5451,
      "sneezing": 5452,
      "fascin": 5453,
      "Mon": 5454,
      "wow": 5455,
      "rever": 5456,
      "onions": 5457,
      "third": 5458,
      "Thom": 5459,
      "minerals": 5460,
      "items": 5461,
      "accompl": 5462,
      "sausages": 5463,
      "Bouncy": 5464,
      "refuse": 5465,
      "company": 5466,
      "Jon": 5467,
      "Luck": 5468,
      "bare": 5469,
      "beads": 5470,
      "cans": 5471,
      "staring": 5472,
      "workers": 5473,
      "Great": 5474,
      "instructions": 5475,
      "Ava": 5476,
      "pajamas": 5477,
      "athy": 5478,
      "gathering": 5479,
      "quarreling": 5480,
      "penguins": 5481,
      "achieve": 5482,
      "Duck": 5483,
      "wins": 5484,
      "neither": 5485,
      "oops": 5486,
      "observed": 5487,
      "listens": 5488,
      "protecting": 5489,
      "introduc": 5490,
      "balanced": 5491,
      "Luckily": 5492,
      "Adam": 5493,
      "ud": 5494,
      "anger": 5495,
      "snowmen": 5496,
      "Tara": 5497,
      "bedtime": 5498,
      "laying": 5499,
      "destination": 5500,
      "leaning": 5501,
      "Rudy": 5502,
      "Hope": 5503,
      "Bang": 5504,
      "Jilly": 5505,
      "everyday": 5506,
      "bowls": 5507,
      "rolls": 5508,
      "doctors": 5509,
      "rainbows": 5510,
      "candies": 5511,
      "mies": 5512,
      "ley": 5513,
      "flict": 5514,
      "forks": 5515,
      "chefs": 5516,
      "Cindy": 5517,
      "Twink": 5518,
      "fears": 5519,
      "trig": 5520,
      "fairies": 5521,
      "mints": 5522,
      "circus": 5523,
      "sights": 5524,
      "Want": 5525,
      "tier": 5526,
      "uct": 5527,
      "prettier": 5528,
      "conflict": 5529,
      "stern": 5530,
      "filling": 5531,
      "tune": 5532,
      "logs": 5533,
      "Jessica": 5534,
      "rescued": 5535,
      "situation": 5536,
      "cous": 5537,
      "ker": 5538,
      "tum": 5539,
      "orted": 5540,
      "endy": 5541,
      "magnets": 5542,
      "bows": 5543,
      "drums": 5544,
      "flags": 5545,
      "guns": 5546,
      "Betsy": 5547,
      "Shh": 5548,
      "behaving": 5549,
      "weren": 5550,
      "Only": 5551,
      "noses": 5552,
      "strum": 5553,
      "agrees": 5554,
      "swallow": 5555,
      "reaching": 5556,
      "Roar": 5557,
      "blows": 5558,
      "Yesterday": 5559,
      "timer": 5560,
      "Ah": 5561,
      "Jump": 5562,
      "sticking": 5563,
      "singer": 5564,
      "replaced": 5565,
      "recording": 5566,
      "Susan": 5567,
      "curly": 5568,
      "applauded": 5569,
      "cautious": 5570,
      "Trust": 5571,
      "ippy": 5572,
      "neath": 5573,
      "bbie": 5574,
      "untie": 5575,
      "shrug": 5576,
      "warnings": 5577,
      "Ball": 5578,
      "Tree": 5579,
      "ib": 5580,
      "ido": 5581,
      "amb": 5582,
      "irm": 5583,
      "rule": 5584,
      "farther": 5585,
      "villag": 5586,
      "scales": 5587,
      "Love": 5588,
      "tickled": 5589,
      "superheroes": 5590,
      "tangled": 5591,
      "Fido": 5592,
      "dent": 5593,
      "bodies": 5594,
      "robb": 5595,
      "caused": 5596,
      "usually": 5597,
      "sweat": 5598,
      "scoop": 5599,
      "basement": 5600,
      "Skip": 5601,
      "paddle": 5602,
      "Day": 5603,
      "becoming": 5604,
      "jackets": 5605,
      "direction": 5606,
      "annah": 5607,
      "sobbed": 5608,
      "Dee": 5609,
      "Holly": 5610,
      "hitting": 5611,
      "ref": 5612,
      "homework": 5613,
      "patted": 5614,
      "pointy": 5615,
      "creating": 5616,
      "Jenna": 5617,
      "inviting": 5618,
      "shelves": 5619,
      "begin": 5620,
      "Thomas": 5621,
      "Twinkle": 5622,
      "villagers": 5623,
      "Fl": 5624,
      "Linda": 5625,
      "ners": 5626,
      "nine": 5627,
      "wound": 5628,
      "whose": 5629,
      "eath": 5630,
      "uddles": 5631,
      "handful": 5632,
      "windy": 5633,
      "tables": 5634,
      "pumpkins": 5635,
      "librarian": 5636,
      "curtains": 5637,
      "Bloom": 5638,
      "Fu": 5639,
      "rance": 5640,
      "master": 5641,
      "project": 5642,
      "beneath": 5643,
      "teamwork": 5644,
      "complaining": 5645,
      "Lion": 5646,
      "Snap": 5647,
      "ledge": 5648,
      "passing": 5649,
      "clowns": 5650,
      "supplies": 5651,
      "younger": 5652,
      "Abbie": 5653,
      "Ew": 5654,
      "Mel": 5655,
      "ropes": 5656,
      "ops": 5657,
      "fact": 5658,
      "shoulders": 5659,
      "valued": 5660,
      "pans": 5661,
      "solut": 5662,
      "tricky": 5663,
      "Hoot": 5664,
      "effort": 5665,
      "introduced": 5666,
      "Gina": 5667,
      "Jessie": 5668,
      "rip": 5669,
      "unic": 5670,
      "yourselves": 5671,
      "rusty": 5672,
      "slam": 5673,
      "lighter": 5674,
      "misses": 5675,
      "winked": 5676,
      "rubs": 5677,
      "loading": 5678,
      "requested": 5679,
      "risk": 5680,
      "awesome": 5681,
      "crumbs": 5682,
      "unicorn": 5683,
      "Fine": 5684,
      "Hannah": 5685,
      "Vroom": 5686,
      "scra": 5687,
      "itches": 5688,
      "ranger": 5689,
      "paying": 5690,
      "complained": 5691,
      "Kayla": 5692,
      "reflect": 5693,
      "Oops": 5694,
      "iv": 5695,
      "moo": 5696,
      "knowledge": 5697,
      "stays": 5698,
      "firefight": 5699,
      "insist": 5700,
      "napkins": 5701,
      "itchy": 5702,
      "prayer": 5703,
      "froze": 5704,
      "chirping": 5705,
      "Sadly": 5706,
      "stomped": 5707,
      "cot": 5708,
      "fab": 5709,
      "firm": 5710,
      "underneath": 5711,
      "faraway": 5712,
      "hider": 5713,
      "steady": 5714,
      "wraps": 5715,
      "leading": 5716,
      "arrows": 5717,
      "wipes": 5718,
      "included": 5719,
      "images": 5720,
      "buzzed": 5721,
      "Mart": 5722,
      "Nice": 5723,
      "stumble": 5724,
      "Ant": 5725,
      "joked": 5726,
      "bars": 5727,
      "closes": 5728,
      "grabbing": 5729,
      "seeker": 5730,
      "adding": 5731,
      "pencils": 5732,
      "Mat": 5733,
      "Que": 5734,
      "Rain": 5735,
      "vowed": 5736,
      "ented": 5737,
      "rac": 5738,
      "backward": 5739,
      "Samant": 5740,
      "surface": 5741,
      "talks": 5742,
      "tractor": 5743,
      "princesses": 5744,
      "lifting": 5745,
      "lollipops": 5746,
      "Luke": 5747,
      "fascinated": 5748,
      "Samantha": 5749,
      "Mic": 5750,
      "Spir": 5751,
      "bunch": 5752,
      "masks": 5753,
      "written": 5754,
      "dived": 5755,
      "startled": 5756,
      "groups": 5757,
      "blooming": 5758,
      "ornaments": 5759,
      "...\"": 5760,
      "paddled": 5761,
      "Mikey": 5762,
      "smarter": 5763,
      "uctantly": 5764,
      "Queen": 5765,
      "Spirit": 5766,
      "Rover": 5767,
      "rist": 5768,
      "tuce": 5769,
      "refre": 5770,
      "thro": 5771,
      "quacked": 5772,
      "colored": 5773,
      "guys": 5774,
      "Snugg": 5775,
      "refreshed": 5776,
      "throat": 5777,
      "June": 5778,
      "giggling": 5779,
      "swords": 5780,
      "isies": 5781,
      "aren": 5782,
      "scarves": 5783,
      "pose": 5784,
      "Dodo": 5785,
      "hides": 5786,
      "fires": 5787,
      "mushrooms": 5788,
      "neighbourhood": 5789,
      "wobbled": 5790,
      "ruining": 5791,
      "properly": 5792,
      "?'": 5793,
      "Zee": 5794,
      "aa": 5795,
      "vines": 5796,
      "ingo": 5797,
      "stung": 5798,
      "sequ": 5799,
      "rainy": 5800,
      "reads": 5801,
      "darkness": 5802,
      "sweets": 5803,
      "daisies": 5804,
      "nectar": 5805,
      "satisfied": 5806,
      "confident": 5807,
      "fabric": 5808,
      "iar": 5809,
      "chuck": 5810,
      "races": 5811,
      "explorers": 5812,
      "salty": 5813,
      "familiar": 5814,
      "barely": 5815,
      "Cuddles": 5816,
      "Hor": 5817,
      "Sleep": 5818,
      "bbled": 5819,
      "ibb": 5820,
      "lle": 5821,
      "relief": 5822,
      "decorating": 5823,
      "wiping": 5824,
      "insects": 5825,
      "Wendy": 5826,
      "haust": 5827,
      "ory": 5828,
      "seag": 5829,
      "deal": 5830,
      "exhaust": 5831,
      "lettuce": 5832,
      "bravery": 5833,
      "ences": 5834,
      "Yeah": 5835,
      "provided": 5836,
      "Snuggles": 5837,
      "seagull": 5838,
      "Birthday": 5839,
      "swooped": 5840,
      "rotting": 5841,
      "Without": 5842,
      "source": 5843,
      "matters": 5844,
      "Brownie": 5845,
      "tunnels": 5846,
      "knees": 5847,
      "discovering": 5848,
      "choices": 5849,
      "dots": 5850,
      "deserve": 5851,
      "Rolly": 5852,
      "hum": 5853,
      "ties": 5854,
      "immer": 5855,
      "seas": 5856,
      "helpers": 5857,
      "however": 5858,
      "rains": 5859,
      "wears": 5860,
      "scur": 5861,
      "Peanut": 5862,
      "lifts": 5863,
      "crowd": 5864,
      "twinkling": 5865,
      "bumpy": 5866,
      "mater": 5867,
      "sewed": 5868,
      "ventured": 5869,
      "consequ": 5870,
      "swept": 5871,
      "Rollie": 5872,
      "kicks": 5873,
      "examined": 5874,
      "figured": 5875,
      "Crab": 5876,
      "exhausted": 5877,
      "material": 5878,
      "ese": 5879,
      "plent": 5880,
      "faced": 5881,
      "sunflowers": 5882,
      "remembering": 5883,
      "marked": 5884,
      "necklaces": 5885,
      "delivered": 5886,
      "gems": 5887,
      "suffering": 5888,
      "cheeks": 5889,
      "Maya": 5890,
      "anno": 5891,
      "ouch": 5892,
      "shaped": 5893,
      "brand": 5894,
      "reluctantly": 5895,
      "slower": 5896,
      "signed": 5897,
      "Christ": 5898,
      "twirling": 5899,
      "puppet": 5900,
      "solution": 5901,
      "plenty": 5902,
      "aut": 5903,
      "pite": 5904,
      "entire": 5905,
      "traded": 5906,
      "jobs": 5907,
      "shops": 5908,
      "desert": 5909,
      "calmed": 5910,
      "bumps": 5911,
      "growling": 5912,
      "Whee": 5913,
      "wobble": 5914,
      "lungs": 5915,
      "cousin": 5916,
      "Fuzzy": 5917,
      "scurried": 5918,
      "annoy": 5919,
      "Cathy": 5920,
      "ora": 5921,
      "ripe": 5922,
      "hog": 5923,
      "untied": 5924,
      "baths": 5925,
      "pastries": 5926,
      "silent": 5927,
      "activities": 5928,
      "chuckled": 5929,
      "consequences": 5930,
      "Near": 5931,
      "zie": 5932,
      "impossible": 5933,
      "blocking": 5934,
      "heavier": 5935,
      "speaking": 5936,
      "Suzie": 5937,
      "Days": 5938,
      "Gu": 5939,
      "ena": 5940,
      "forehead": 5941,
      "char": 5942,
      "partic": 5943,
      "designed": 5944,
      "accomplish": 5945,
      "Woo": 5946,
      "pins": 5947,
      "least": 5948,
      "stem": 5949,
      "buying": 5950,
      "gar": 5951,
      "hus": 5952,
      "lamb": 5953,
      "haw": 5954,
      "losing": 5955,
      "twice": 5956,
      "pleasure": 5957,
      "Whistle": 5958,
      "touches": 5959,
      "guessing": 5960,
      "scratches": 5961,
      "Christmas": 5962,
      "Larry": 5963,
      "opp": 5964,
      "liqu": 5965,
      "ters": 5966,
      "badge": 5967,
      "grows": 5968,
      "belts": 5969,
      "stain": 5970,
      "entrance": 5971,
      "kings": 5972,
      "budge": 5973,
      "tapped": 5974,
      "waiter": 5975,
      "pennies": 5976,
      "biting": 5977,
      "purr": 5978,
      "interested": 5979,
      "celebrating": 5980,
      "praying": 5981,
      "completely": 5982,
      "objects": 5983,
      "labels": 5984,
      "guests": 5985,
      "rious": 5986,
      "unpacked": 5987,
      "thrown": 5988,
      "marker": 5989,
      "cobwebs": 5990,
      "Sophia": 5991,
      "hesitated": 5992,
      "reversed": 5993,
      "particular": 5994,
      "Juli": 5995,
      "Up": 5996,
      "lings": 5997,
      "ading": 5998,
      "everybody": 5999,
      "month": 6000,
      "wishing": 6001,
      "suits": 6002,
      "beyond": 6003,
      "Pam": 6004,
      "Ske": 6005,
      "bie": 6006,
      "dama": 6007,
      "yan": 6008,
      "restored": 6009,
      "fever": 6010,
      "planning": 6011,
      "presses": 6012,
      "feeding": 6013,
      "supported": 6014,
      "freed": 6015,
      "hedgehog": 6016,
      "Skelly": 6017,
      "damage": 6018,
      "Mine": 6019,
      "Yog": 6020,
      "bly": 6021,
      "ky": 6022,
      "somebody": 6023,
      "wakes": 6024,
      "squares": 6025,
      "wandering": 6026,
      "darling": 6027,
      "Fire": 6028,
      "Pick": 6029,
      "iz": 6030,
      "sway": 6031,
      "?\",": 6032,
      "backwards": 6033,
      "mailed": 6034,
      "Does": 6035,
      "printing": 6036,
      "stool": 6037,
      "avoid": 6038,
      "zipping": 6039,
      "Puppy": 6040,
      "reflection": 6041,
      "liquid": 6042,
      "Fight": 6043,
      "Isn": 6044,
      "Lia": 6045,
      "earn": 6046,
      "gle": 6047,
      "lon": 6048,
      "os": 6049,
      "rum": 6050,
      "plain": 6051,
      "chop": 6052,
      "yells": 6053,
      "snat": 6054,
      "flames": 6055,
      "swims": 6056,
      "knocks": 6057,
      "squeal": 6058,
      "screws": 6059,
      "including": 6060,
      "bits": 6061,
      "backed": 6062,
      "Jackie": 6063,
      "colder": 6064,
      "scor": 6065,
      "wrapping": 6066,
      "sparks": 6067,
      "tires": 6068,
      "aws": 6069,
      "Univer": 6070,
      "twinkle": 6071,
      "dentist": 6072,
      "Fighting": 6073,
      "Cu": 6074,
      "Hurry": 6075,
      "Turtle": 6076,
      "instrum": 6077,
      "ply": 6078,
      "playhouse": 6079,
      "stolen": 6080,
      "pecked": 6081,
      "glued": 6082,
      "Grumpy": 6083,
      "tested": 6084,
      "leads": 6085,
      "competition": 6086,
      "click": 6087,
      "peeking": 6088,
      "husband": 6089,
      "Very": 6090,
      "buses": 6091,
      "ls": 6092,
      "toed": 6093,
      "igning": 6094,
      "raincoat": 6095,
      "spat": 6096,
      "hearing": 6097,
      "seaweed": 6098,
      "growls": 6099,
      "Yoga": 6100,
      "Laser": 6101,
      "Moon": 6102,
      "cash": 6103,
      "cert": 6104,
      "ul": 6105,
      "vin": 6106,
      "ene": 6107,
      "shoo": 6108,
      "fuzzy": 6109,
      "willing": 6110,
      "afterwards": 6111,
      "magician": 6112,
      "dropping": 6113,
      "paths": 6114,
      "forgets": 6115,
      "frowning": 6116,
      "flapping": 6117,
      "spells": 6118,
      "Janie": 6119,
      "slammed": 6120,
      "Bark": 6121,
      "Bess": 6122,
      "Dot": 6123,
      "Ele": 6124,
      "Matt": 6125,
      "Other": 6126,
      "sense": 6127,
      "iss": 6128,
      "stopping": 6129,
      "needles": 6130,
      "steer": 6131,
      "prove": 6132,
      "tempt": 6133,
      "pupils": 6134,
      "performed": 6135,
      "Excuse": 6136,
      "trigued": 6137,
      "Wink": 6138,
      "lves": 6139,
      "rather": 6140,
      "blings": 6141,
      "storekeeper": 6142,
      "smelling": 6143,
      "Toot": 6144,
      "nests": 6145,
      "covers": 6146,
      "shrinking": 6147,
      "imagining": 6148,
      "separated": 6149,
      "thorns": 6150,
      "cautiously": 6151,
      "Martha": 6152,
      "Micro": 6153,
      "itu": 6154,
      "ammy": 6155,
      "raind": 6156,
      "tying": 6157,
      "skunk": 6158,
      "dollhouse": 6159,
      "wisely": 6160,
      "artist": 6161,
      "minded": 6162,
      "siblings": 6163,
      "vanilla": 6164,
      "determination": 6165,
      "daring": 6166,
      "countryside": 6167,
      "students": 6168,
      "Chewy": 6169,
      "raindro": 6170,
      "Baa": 6171,
      "Jay": 6172,
      "Nick": 6173,
      "Stre": 6174,
      "Sant": 6175,
      "cent": 6176,
      "nood": 6177,
      "sale": 6178,
      "forgiving": 6179,
      "feast": 6180,
      "paired": 6181,
      "Meg": 6182,
      "changing": 6183,
      "stronaut": 6184,
      "itude": 6185,
      "Santa": 6186,
      "Ja": 6187,
      "Make": 6188,
      "Stell": 6189,
      "astronaut": 6190,
      "pouted": 6191,
      "repaired": 6192,
      "hael": 6193,
      "iles": 6194,
      "maker": 6195,
      "ortun": 6196,
      "slowed": 6197,
      "triangles": 6198,
      "Snowman": 6199,
      "indeed": 6200,
      "shovels": 6201,
      "Magic": 6202,
      "burst": 6203,
      "Michael": 6204,
      "Jacob": 6205,
      "Stella": 6206,
      "Ana": 6207,
      "Dara": 6208,
      "Sof": 6209,
      "Too": 6210,
      "itched": 6211,
      "ware": 6212,
      "aside": 6213,
      "treehouse": 6214,
      "watering": 6215,
      "puff": 6216,
      "Chris": 6217,
      "genie": 6218,
      "haircuts": 6219,
      "behavi": 6220,
      "bakery": 6221,
      "snatched": 6222,
      "Fe": 6223,
      "Lena": 6224,
      "fits": 6225,
      "thud": 6226,
      "worries": 6227,
      "bras": 6228,
      "firefly": 6229,
      "Janey": 6230,
      "Todd": 6231,
      "rotten": 6232,
      "jars": 6233,
      "drivers": 6234,
      "celebration": 6235,
      "swans": 6236,
      "bandages": 6237,
      "Tweetie": 6238,
      "trembled": 6239,
      "honked": 6240,
      "ivity": 6241,
      "accomplishment": 6242,
      "cashier": 6243,
      "10": 6244,
      "blocked": 6245,
      "cca": 6246,
      "reas": 6247,
      "Ange": 6248,
      "serving": 6249,
      "zebras": 6250,
      "paintbrush": 6251,
      "Emmy": 6252,
      "creativity": 6253,
      "borrowed": 6254,
      "films": 6255,
      "Davey": 6256,
      "Stretch": 6257,
      "Elle": 6258,
      "Izzy": 6259,
      "Patch": 6260,
      "Ribb": 6261,
      "date": 6262,
      "gross": 6263,
      "thest": 6264,
      "players": 6265,
      "mance": 6266,
      "pered": 6267,
      "Doctor": 6268,
      "Which": 6269,
      "creams": 6270,
      "cloudy": 6271,
      "spreading": 6272,
      "meals": 6273,
      "bracelets": 6274,
      "slices": 6275,
      "performance": 6276,
      "stroke": 6277,
      "Ribbit": 6278,
      "La": 6279,
      "Ryan": 6280,
      "izz": 6281,
      "sim": 6282,
      "reason": 6283,
      "wadd": 6284,
      "unsure": 6285,
      "racco": 6286,
      "owners": 6287,
      "single": 6288,
      "zzie": 6289,
      "fins": 6290,
      "flake": 6291,
      "whispers": 6292,
      "stalk": 6293,
      "mesmer": 6294,
      "Lizzie": 6295,
      "tiptoed": 6296,
      "recipe": 6297,
      "Bingo": 6298,
      "Kip": 6299,
      "Say": 6300,
      "sewing": 6301,
      "surprising": 6302,
      "queens": 6303,
      "twisting": 6304,
      "crackers": 6305,
      "wobbly": 6306,
      "directions": 6307,
      "Ash": 6308,
      "Ron": 6309,
      "cers": 6310,
      "tock": 6311,
      "squish": 6312,
      "dancers": 6313,
      "hotter": 6314,
      "airy": 6315,
      "counts": 6316,
      "health": 6317,
      "squeezing": 6318,
      "designs": 6319,
      "magazines": 6320,
      "seconds": 6321,
      "stroked": 6322,
      "beginning": 6323,
      "Bigg": 6324,
      "Honey": 6325,
      "Rat": 6326,
      "bi": 6327,
      "hoops": 6328,
      "pon": 6329,
      "tweet": 6330,
      "atur": 6331,
      "ends": 6332,
      "geese": 6333,
      "loops": 6334,
      "Momma": 6335,
      "spins": 6336,
      "Nobody": 6337,
      "Joke": 6338,
      "Afterwards": 6339,
      "dances": 6340,
      "hops": 6341,
      "corners": 6342,
      "belle": 6343,
      "squeak": 6344,
      "Robert": 6345,
      "noodles": 6346,
      "Biggie": 6347,
      "Fro": 6348,
      "Smo": 6349,
      "mate": 6350,
      "ount": 6351,
      "loses": 6352,
      "notes": 6353,
      "gears": 6354,
      "outfit": 6355,
      "peck": 6356,
      "Jacky": 6357,
      "curiously": 6358,
      "plans": 6359,
      "delivery": 6360,
      "horiz": 6361,
      "grip": 6362,
      "recommended": 6363,
      "spikes": 6364,
      "respond": 6365,
      "performing": 6366,
      "rrr": 6367,
      "rup": 6368,
      "iti": 6369,
      "imb": 6370,
      "iding": 6371,
      "amed": 6372,
      "ilo": 6373,
      "rushing": 6374,
      "ceries": 6375,
      "camping": 6376,
      "clues": 6377,
      "surfboard": 6378,
      "groceries": 6379,
      "Deal": 6380,
      "tummies": 6381,
      "Guess": 6382,
      "scored": 6383,
      "Eleph": 6384,
      "issue": 6385,
      "raccoon": 6386,
      "horizon": 6387,
      "Ice": 6388,
      "Milo": 6389,
      "dip": 6390,
      "hour": 6391,
      "forgetting": 6392,
      "deed": 6393,
      "express": 6394,
      "swir": 6395,
      "spies": 6396,
      "guy": 6397,
      "bells": 6398,
      "slips": 6399,
      "roars": 6400,
      "Megan": 6401,
      "giggles": 6402,
      "suffered": 6403,
      "cuddly": 6404,
      "lipstick": 6405,
      "Share": 6406,
      "squealed": 6407,
      "Farm": 6408,
      "Moppy": 6409,
      "Ne": 6410,
      "Sim": 6411,
      "Win": 6412,
      "Wake": 6413,
      "Yet": 6414,
      "itor": 6415,
      "nu": 6416,
      "intrigued": 6417,
      "ility": 6418,
      "tered": 6419,
      "lower": 6420,
      "ives": 6421,
      "talented": 6422,
      "warmer": 6423,
      "sweetest": 6424,
      "tipped": 6425,
      "yelp": 6426,
      "melons": 6427,
      "ignoring": 6428,
      "cushions": 6429,
      "darlings": 6430,
      "increased": 6431,
      "rising": 6432,
      "Mix": 6433,
      "fluttered": 6434,
      "widened": 6435,
      "Along": 6436,
      "Biggy": 6437,
      "Pup": 6438,
      "ais": 6439,
      "blown": 6440,
      "tissue": 6441,
      "among": 6442,
      "plugged": 6443,
      "lia": 6444,
      "forts": 6445,
      "shown": 6446,
      "urtles": 6447,
      "drawers": 6448,
      "beehive": 6449,
      "pays": 6450,
      "bicycles": 6451,
      "Climb": 6452,
      "Floppy": 6453,
      "strongest": 6454,
      "swallowed": 6455,
      "glee": 6456,
      "University": 6457,
      "raindrops": 6458,
      "Lenny": 6459,
      "Wor": 6460,
      "center": 6461,
      "rumble": 6462,
      "sank": 6463,
      "toaster": 6464,
      "inst": 6465,
      "amboo": 6466,
      "Herb": 6467,
      "creations": 6468,
      "sped": 6469,
      "creamy": 6470,
      "explo": 6471,
      "Choo": 6472,
      "robots": 6473,
      "peacefully": 6474,
      "pancakes": 6475,
      "nervously": 6476,
      "delivering": 6477,
      "rewarded": 6478,
      "blinking": 6479,
      "preparing": 6480,
      "tossed": 6481,
      "Excited": 6482,
      "Barky": 6483,
      "reassur": 6484,
      "Frosty": 6485,
      "Mother": 6486,
      "Se": 6487,
      "rink": 6488,
      "lever": 6489,
      "talent": 6490,
      "perate": 6491,
      "footsteps": 6492,
      "Rock": 6493,
      "scarecrow": 6494,
      "Marie": 6495,
      "whistles": 6496,
      "pinching": 6497,
      "wiggly": 6498,
      "Frankie": 6499,
      "sniffs": 6500,
      "?!\"": 6501,
      "Bro": 6502,
      "Eli": 6503,
      "Find": 6504,
      "Never": 6505,
      "Open": 6506,
      "Playing": 6507,
      "bamboo": 6508,
      "lling": 6509,
      "spits": 6510,
      "couple": 6511,
      "stands": 6512,
      "Freddie": 6513,
      "raging": 6514,
      "knots": 6515,
      "certain": 6516,
      "Gran": 6517,
      "Use": 6518,
      "Zog": 6519,
      "Helen": 6520,
      "ilder": 6521,
      "sever": 6522,
      "ongrat": 6523,
      "coloured": 6524,
      "hopeful": 6525,
      "awn": 6526,
      "quarreled": 6527,
      "softer": 6528,
      "regretted": 6529,
      "Louise": 6530,
      "risks": 6531,
      "Farmer": 6532,
      "Bones": 6533,
      "Paws": 6534,
      "Ral": 6535,
      "Since": 6536,
      "Tes": 6537,
      "acle": 6538,
      "ized": 6539,
      "lan": 6540,
      "lending": 6541,
      "sending": 6542,
      "abby": 6543,
      "angle": 6544,
      "sation": 6545,
      "rivers": 6546,
      "visitor": 6547,
      "kittens": 6548,
      "symbols": 6549,
      "pedaled": 6550,
      "discussed": 6551,
      "obeyed": 6552,
      "Flop": 6553,
      "robber": 6554,
      "materials": 6555,
      "hawk": 6556,
      "ponies": 6557,
      "Ralph": 6558,
      "Tessa": 6559,
      "Karen": 6560,
      "Madd": 6561,
      "ashed": 6562,
      "aimed": 6563,
      "soaking": 6564,
      "handsome": 6565,
      "dollars": 6566,
      "drawn": 6567,
      "bathing": 6568,
      "ments": 6569,
      "streets": 6570,
      "merma": 6571,
      "flipped": 6572,
      "sharks": 6573,
      "relaxing": 6574,
      "passports": 6575,
      "surroundings": 6576,
      "immering": 6577,
      "Ratty": 6578,
      "Elephant": 6579,
      "Maddie": 6580,
      "Con": 6581,
      "More": 6582,
      "Ra": 6583,
      "Titi": 6584,
      "eted": 6585,
      "turtles": 6586,
      "ann": 6587,
      "waking": 6588,
      "encou": 6589,
      "stitches": 6590,
      "ades": 6591,
      "chie": 6592,
      "Toys": 6593,
      "covering": 6594,
      "sprang": 6595,
      "crossing": 6596,
      "tigers": 6597,
      "figures": 6598,
      "policeman": 6599,
      "pigeons": 6600,
      "apolog": 6601,
      "opinions": 6602,
      "achieved": 6603,
      "Poor": 6604,
      "firefighter": 6605,
      "Arrr": 6606,
      "Bumpy": 6607,
      "Cow": 6608,
      "Loop": 6609,
      "todd": 6610,
      "plug": 6611,
      "cept": 6612,
      "asing": 6613,
      "manners": 6614,
      "polar": 6615,
      "gardener": 6616,
      "Joan": 6617,
      "snowflake": 6618,
      "mixture": 6619,
      "understands": 6620,
      "sails": 6621,
      "sailboat": 6622,
      "Chick": 6623,
      "slipping": 6624,
      "sneezes": 6625,
      "teams": 6626,
      "Stan": 6627,
      "frowns": 6628,
      "suitcase": 6629,
      "temper": 6630,
      "scattering": 6631,
      "Jonny": 6632,
      "firmly": 6633,
      "seasons": 6634,
      "ongratul": 6635,
      "encouraging": 6636,
      "Ali": 6637,
      "Des": 6638,
      "Show": 6639,
      "blast": 6640,
      "ition": 6641,
      "poster": 6642,
      "surfing": 6643,
      "crew": 6644,
      "Everybody": 6645,
      "Boom": 6646,
      "fills": 6647,
      "tighter": 6648,
      "scooters": 6649,
      "Robbie": 6650,
      "packages": 6651,
      "repeating": 6652,
      "Bubba": 6653,
      "adults": 6654,
      "waddled": 6655,
      "Mous": 6656,
      "bage": 6657,
      "een": 6658,
      "ease": 6659,
      "hil": 6660,
      "ppies": 6661,
      "hadow": 6662,
      "spice": 6663,
      "tram": 6664,
      "grassy": 6665,
      "planting": 6666,
      "ounced": 6667,
      "pops": 6668,
      "markers": 6669,
      "angels": 6670,
      "seals": 6671,
      "postman": 6672,
      "beeped": 6673,
      "puppies": 6674,
      "wider": 6675,
      "nuzz": 6676,
      "Granny": 6677,
      "Mousy": 6678,
      "Back": 6679,
      "Dear": 6680,
      "echo": 6681,
      "nif": 6682,
      "pours": 6683,
      "beloved": 6684,
      "clue": 6685,
      "joins": 6686,
      "compe": 6687,
      "farthest": 6688,
      "Jojo": 6689,
      "swimmer": 6690,
      "pleaded": 6691,
      "Goodnight": 6692,
      "explains": 6693,
      "brushing": 6694,
      "burnt": 6695,
      "rats": 6696,
      "speeding": 6697,
      "bulbs": 6698,
      "disturbing": 6699,
      "humans": 6700,
      "Should": 6701,
      "Zoey": 6702,
      "flavors": 6703,
      "longest": 6704,
      "Apr": 6705,
      "Any": 6706,
      "Fion": 6707,
      "Kit": 6708,
      "Kelly": 6709,
      "Play": 6710,
      "Tippy": 6711,
      "Wise": 6712,
      "smashed": 6713,
      "wenty": 6714,
      "greeted": 6715,
      "Grand": 6716,
      "spoonful": 6717,
      "strips": 6718,
      "sports": 6719,
      "sheets": 6720,
      "gracefully": 6721,
      "yielded": 6722,
      "banged": 6723,
      "Sadie": 6724,
      "mesmerized": 6725,
      "April": 6726,
      "Fiona": 6727,
      "Phil": 6728,
      "Tell": 6729,
      "Wil": 6730,
      "dump": 6731,
      "fle": 6732,
      "loss": 6733,
      "lies": 6734,
      "aged": 6735,
      "antic": 6736,
      "overcome": 6737,
      "dresser": 6738,
      "scient": 6739,
      "chosen": 6740,
      "believing": 6741,
      "Mean": 6742,
      "beanstalk": 6743,
      "vehicles": 6744,
      "Judge": 6745,
      "Sparkle": 6746,
      "Mixy": 6747,
      "scraped": 6748,
      "Julia": 6749,
      "mermaid": 6750,
      "trampol": 6751,
      "Mina": 6752,
      "Rich": 6753,
      "Tw": 6754,
      "miles": 6755,
      "til": 6756,
      "bully": 6757,
      "ilda": 6758,
      "secure": 6759,
      "sisted": 6760,
      "scam": 6761,
      "puzzled": 6762,
      "Missy": 6763,
      "hunters": 6764,
      "grandson": 6765,
      "breathed": 6766,
      "neighbours": 6767,
      "Outside": 6768,
      "hesitant": 6769,
      "sternly": 6770,
      "scientist": 6771,
      "Amber": 6772,
      "Grow": 6773,
      "Ring": 6774,
      "Taking": 6775,
      "fted": 6776,
      "goo": 6777,
      "ias": 6778,
      "tuck": 6779,
      "andas": 6780,
      "resisted": 6781,
      "orrow": 6782,
      "rior": 6783,
      "dod": 6784,
      "idey": 6785,
      "carries": 6786,
      "spy": 6787,
      "charac": 6788,
      "nodding": 6789,
      "tricycle": 6790,
      "purpose": 6791,
      "correct": 6792,
      "warrior": 6793,
      "statues": 6794,
      "Spidey": 6795,
      "enthusias": 6796,
      "hallway": 6797,
      "sailors": 6798,
      "rustling": 6799,
      "simply": 6800,
      "enthusiasm": 6801,
      "Am": 6802,
      "Abi": 6803,
      "Bri": 6804,
      "Sir": 6805,
      "Tia": 6806,
      "Unt": 6807,
      "Yawn": 6808,
      "oni": 6809,
      "amount": 6810,
      "becca": 6811,
      "wept": 6812,
      "forgiven": 6813,
      "nasty": 6814,
      "bble": 6815,
      "bravest": 6816,
      "tasting": 6817,
      "Rebecca": 6818,
      "shinier": 6819,
      "hangers": 6820,
      "changes": 6821,
      "panicked": 6822,
      "testing": 6823,
      "rays": 6824,
      "destroying": 6825,
      "neatly": 6826,
      "gazing": 6827,
      "sprinkled": 6828,
      "twinkled": 6829,
      "Sparky": 6830,
      "cotton": 6831,
      "squishy": 6832,
      "Despite": 6833,
      "trampoline": 6834,
      "Until": 6835,
      "'.\"": 6836,
      "Gill": 6837,
      "Lau": 6838,
      "Right": 6839,
      "Sa": 6840,
      "Tre": 6841,
      "Tig": 6842,
      "Vio": 6843,
      "twenty": 6844,
      "address": 6845,
      "although": 6846,
      "Tomorrow": 6847,
      "oosh": 6848,
      "failed": 6849,
      "item": 6850,
      "poppies": 6851,
      "singers": 6852,
      "worrying": 6853,
      "dreamt": 6854,
      "Beaky": 6855,
      "benches": 6856,
      "engines": 6857,
      "toothbrush": 6858,
      "Although": 6859,
      "burying": 6860,
      "languages": 6861,
      "permitted": 6862,
      "bothering": 6863,
      "burrow": 6864,
      "Elsa": 6865,
      "instruments": 6866,
      "Laura": 6867,
      "Ame": 6868,
      "Close": 6869,
      "Gary": 6870,
      "Match": 6871,
      "bbling": 6872,
      "kill": 6873,
      "mood": 6874,
      "ramp": 6875,
      "shor": 6876,
      "pea": 6877,
      "foc": 6878,
      "cutter": 6879,
      "welcoming": 6880,
      "phones": 6881,
      "dripping": 6882,
      "baskets": 6883,
      "bellies": 6884,
      "knives": 6885,
      "respected": 6886,
      "politely": 6887,
      "aeroplanes": 6888,
      "mosquitoes": 6889,
      "Shrink": 6890,
      "travelled": 6891,
      "annoyed": 6892,
      "apologised": 6893,
      "temperature": 6894,
      "Bar": 6895,
      "Eat": 6896,
      "Sil": 6897,
      "dred": 6898,
      "pandas": 6899,
      "ron": 6900,
      "vil": 6901,
      "haird": 6902,
      "hiss": 6903,
      "cleaner": 6904,
      "Jolly": 6905,
      "swap": 6906,
      "shady": 6907,
      "squeaked": 6908,
      "spills": 6909,
      "edges": 6910,
      "punishment": 6911,
      "Elsie": 6912,
      "Meanwhile": 6913,
      "Violet": 6914,
      "shorter": 6915,
      "Sand": 6916,
      "Sup": 6917,
      "bou": 6918,
      "flight": 6919,
      "za": 6920,
      "llas": 6921,
      "worn": 6922,
      "thoughts": 6923,
      "elf": 6924,
      "heading": 6925,
      "chopped": 6926,
      "ships": 6927,
      "Step": 6928,
      "Start": 6929,
      "umbrellas": 6930,
      "Seeing": 6931,
      "jets": 6932,
      "demanding": 6933,
      "crashing": 6934,
      "backpacks": 6935,
      "Steven": 6936,
      "sweaters": 6937,
      "Simon": 6938,
      "Tiger": 6939,
      "bouque": 6940,
      "Edd": 6941,
      "Eric": 6942,
      "Gir": 6943,
      "Ky": 6944,
      "pad": 6945,
      "sou": 6946,
      "sill": 6947,
      "tar": 6948,
      "iment": 6949,
      "ats": 6950,
      "newfound": 6951,
      "dears": 6952,
      "potion": 6953,
      "cafe": 6954,
      "cares": 6955,
      "flowing": 6956,
      "handing": 6957,
      "talents": 6958,
      "business": 6959,
      "crowns": 6960,
      "Starry": 6961,
      "crawls": 6962,
      "massages": 6963,
      "results": 6964,
      "decisions": 6965,
      "peeled": 6966,
      "Nana": 6967,
      "months": 6968,
      "freedom": 6969,
      "hairdress": 6970,
      "Eddie": 6971,
      "Cro": 6972,
      "Gl": 6973,
      "Mus": 6974,
      "aim": 6975,
      "bitten": 6976,
      "omb": 6977,
      "issa": 6978,
      "sacks": 6979,
      "plucked": 6980,
      "unable": 6981,
      "lowered": 6982,
      "Socky": 6983,
      "quie": 6984,
      "blu": 6985,
      "taped": 6986,
      "combed": 6987,
      "magnif": 6988,
      "braver": 6989,
      "locks": 6990,
      "swimsuit": 6991,
      "reminds": 6992,
      "springing": 6993,
      "hundred": 6994,
      "discussing": 6995,
      "Hopper": 6996,
      "encouragement": 6997,
      "nightmares": 6998,
      "fleas": 6999,
      "Jet": 7000,
      "Spin": 7001,
      "thump": 7002,
      "cular": 7003,
      "athan": 7004,
      "sweep": 7005,
      "treated": 7006,
      "lessons": 7007,
      "gesture": 7008,
      "solving": 7009,
      "gasp": 7010,
      "reminding": 7011,
      "flaps": 7012,
      "traveling": 7013,
      "Tweety": 7014,
      "sniffing": 7015,
      "grandchild": 7016,
      "toddler": 7017,
      "hairdresser": 7018,
      "Ar": 7019,
      "Bally": 7020,
      "Care": 7021,
      "Cook": 7022,
      "Iron": 7023,
      "Mint": 7024,
      "Tru": 7025,
      "Zack": 7026,
      "aware": 7027,
      "cas": 7028,
      "cond": 7029,
      "fain": 7030,
      "lent": 7031,
      "height": 7032,
      "rewards": 7033,
      "recor": 7034,
      "stacked": 7035,
      "ici": 7036,
      "Another": 7037,
      "footprints": 7038,
      "merry": 7039,
      "Robo": 7040,
      "scares": 7041,
      "healing": 7042,
      "weekend": 7043,
      "Copper": 7044,
      "uniforms": 7045,
      "Patty": 7046,
      "scratching": 7047,
      "Judy": 7048,
      "Buggy": 7049,
      "Eliza": 7050,
      "visitors": 7051,
      "tilted": 7052,
      "focused": 7053,
      "Super": 7054,
      "recorder": 7055,
      "Cici": 7056,
      "Im": 7057,
      "Mila": 7058,
      "rin": 7059,
      "encounter": 7060,
      "onse": 7061,
      "onward": 7062,
      "playdate": 7063,
      "sess": 7064,
      "ows": 7065,
      "assm": 7066,
      "gobbled": 7067,
      "lotte": 7068,
      "moons": 7069,
      "switched": 7070,
      "Jose": 7071,
      "sandcastles": 7072,
      "designing": 7073,
      "driveway": 7074,
      "attack": 7075,
      "bounces": 7076,
      "flips": 7077,
      "picnics": 7078,
      "snaps": 7079,
      "grandfather": 7080,
      "Charlotte": 7081,
      "bothered": 7082,
      "response": 7083,
      "licking": 7084,
      "damaged": 7085,
      "robbers": 7086,
      "firefighters": 7087,
      "Angel": 7088,
      "several": 7089,
      "scampered": 7090,
      "Silver": 7091,
      "quieter": 7092,
      "''": 7093,
      "Gold": 7094,
      "Over": 7095,
      "Sis": 7096,
      "bomb": 7097,
      "faded": 7098,
      "odd": 7099,
      "insp": 7100,
      "forgives": 7101,
      "asers": 7102,
      "defin": 7103,
      "except": 7104,
      "whoosh": 7105,
      "joyful": 7106,
      "wrink": 7107,
      "sandy": 7108,
      "mischie": 7109,
      "realizes": 7110,
      "crystals": 7111,
      "stamped": 7112,
      "nurses": 7113,
      "Dani": 7114,
      "bends": 7115,
      "delayed": 7116,
      "Speed": 7117,
      "student": 7118,
      "meows": 7119,
      "Prince": 7120,
      "Chess": 7121,
      ".'\"": 7122,
      "Snake": 7123,
      "humming": 7124,
      "Wooly": 7125,
      "oppos": 7126,
      "Curious": 7127,
      "astronauts": 7128,
      "anticip": 7129,
      "Amelia": 7130,
      "opposite": 7131,
      "Ber": 7132,
      "Fairy": 7133,
      "Gerry": 7134,
      "Hug": 7135,
      "Maisy": 7136,
      "nected": 7137,
      "plot": 7138,
      "waterfall": 7139,
      "closing": 7140,
      "trading": 7141,
      "connected": 7142,
      "explorer": 7143,
      "throughout": 7144,
      "wolves": 7145,
      "joining": 7146,
      "dangers": 7147,
      "drifted": 7148,
      "minds": 7149,
      "dragonfly": 7150,
      "collap": 7151,
      "belongings": 7152,
      "Helping": 7153,
      "flip": 7154,
      "action": 7155,
      "journeys": 7156,
      "Still": 7157,
      "mugs": 7158,
      "screwdriver": 7159,
      "Missile": 7160,
      "supplied": 7161,
      "increasing": 7162,
      "Katy": 7163,
      "Fishy": 7164,
      "yelped": 7165,
      "Ca": 7166,
      "Danger": 7167,
      "Gabby": 7168,
      "Jelly": 7169,
      "Roo": 7170,
      "born": 7171,
      "hoo": 7172,
      "ix": 7173,
      "ollen": 7174,
      "tab": 7175,
      "wasting": 7176,
      "fus": 7177,
      "types": 7178,
      "puck": 7179,
      "greet": 7180,
      "buddy": 7181,
      "swollen": 7182,
      "badger": 7183,
      "focus": 7184,
      "Jody": 7185,
      "guide": 7186,
      "avy": 7187,
      "pills": 7188,
      "minding": 7189,
      "Birds": 7190,
      "prizes": 7191,
      "occas": 7192,
      "breathing": 7193,
      "prayers": 7194,
      "friendships": 7195,
      "aprons": 7196,
      "models": 7197,
      "cuddles": 7198,
      "groan": 7199,
      "laptop": 7200,
      "responded": 7201,
      "spices": 7202,
      "Brian": 7203,
      "inspired": 7204,
      "Barry": 7205,
      "Har": 7206,
      "Hank": 7207,
      "Light": 7208,
      "Nut": 7209,
      "Pru": 7210,
      "Sweet": 7211,
      "Shadow": 7212,
      "miest": 7213,
      "pound": 7214,
      "pout": 7215,
      "pant": 7216,
      "arran": 7217,
      "iri": 7218,
      "Butter": 7219,
      "iley": 7220,
      "itely": 7221,
      "poses": 7222,
      "cheated": 7223,
      "stepping": 7224,
      "stetho": 7225,
      "snuck": 7226,
      "cupcakes": 7227,
      "slither": 7228,
      "bats": 7229,
      "prick": 7230,
      "ghosts": 7231,
      "suggestion": 7232,
      "scolds": 7233,
      "Squeak": 7234,
      "snuggle": 7235,
      "aliens": 7236,
      "yummiest": 7237,
      "youngest": 7238,
      "Mabel": 7239,
      "Nancy": 7240,
      "aisle": 7241,
      "Twist": 7242,
      "Sandra": 7243,
      "tablet": 7244,
      ",'": 7245,
      "Eva": 7246,
      "Prom": 7247,
      "Race": 7248,
      "Won": 7249,
      "Willy": 7250,
      "gap": 7251,
      "py": 7252,
      "tin": 7253,
      "onna": 7254,
      "within": 7255,
      "formed": 7256,
      "hover": 7257,
      "abra": 7258,
      "shall": 7259,
      "bless": 7260,
      "ipes": 7261,
      "Johny": 7262,
      "Boys": 7263,
      "floors": 7264,
      "scoops": 7265,
      "shines": 7266,
      "Chip": 7267,
      "Belle": 7268,
      "tubes": 7269,
      "yawning": 7270,
      "questioned": 7271,
      "manager": 7272,
      "clip": 7273,
      "invitations": 7274,
      "weeds": 7275,
      "garbage": 7276,
      "reassured": 7277,
      "definitely": 7278,
      "anticipation": 7279,
      "Candy": 7280,
      "Gus": 7281,
      "Kenny": 7282,
      "Park": 7283,
      "Terry": 7284,
      "Truck": 7285,
      "ying": 7286,
      "toward": 7287,
      "stroll": 7288,
      "hisses": 7289,
      "Shelly": 7290,
      "adabra": 7291,
      "owns": 7292,
      "defe": 7293,
      "Three": 7294,
      "leapt": 7295,
      "doorway": 7296,
      "syrup": 7297,
      "erase": 7298,
      "Peep": 7299,
      "attitude": 7300,
      "pizzas": 7301,
      "cleared": 7302,
      "burns": 7303,
      "wiser": 7304,
      "scram": 7305,
      "hooks": 7306,
      "messages": 7307,
      "Reddy": 7308,
      "windowsill": 7309,
      "choosing": 7310,
      "Liza": 7311,
      "Crabby": 7312,
      "sweaty": 7313,
      "Wonder": 7314,
      "Dina": 7315,
      "Hallow": 7316,
      "Hmm": 7317,
      "Ms": 7318,
      "Man": 7319,
      "Navy": 7320,
      "Pinch": 7321,
      "evil": 7322,
      "nor": 7323,
      "ocular": 7324,
      "ots": 7325,
      "ndered": 7326,
      "shrank": 7327,
      "cock": 7328,
      "cope": 7329,
      "teles": 7330,
      "Andre": 7331,
      "builder": 7332,
      "tapping": 7333,
      "doorbell": 7334,
      "brake": 7335,
      "stew": 7336,
      "custo": 7337,
      "germs": 7338,
      "Allie": 7339,
      "rows": 7340,
      "glitt": 7341,
      "elect": 7342,
      "Blinky": 7343,
      "despite": 7344,
      "teachers": 7345,
      "audi": 7346,
      "Whoever": 7347,
      "beetles": 7348,
      "envelopes": 7349,
      "oysters": 7350,
      "Alright": 7351,
      "knocking": 7352,
      "surrendered": 7353,
      "expecting": 7354,
      "zigzags": 7355,
      "invites": 7356,
      "Jean": 7357,
      "burger": 7358,
      "Auntie": 7359,
      "glittering": 7360,
      "Sofia": 7361,
      "echoed": 7362,
      "characters": 7363,
      "bouquet": 7364,
      "Daniel": 7365,
      "Bernie": 7366,
      "stethoscope": 7367,
      "Promise": 7368,
      "Halloween": 7369,
      "Father": 7370,
      "Fortun": 7371,
      "clicked": 7372,
      "congratul": 7373,
      "passes": 7374,
      "rely": 7375,
      "refresh": 7376,
      "necks": 7377,
      "upside": 7378,
      "force": 7379,
      "teen": 7380,
      "cheat": 7381,
      "cheers": 7382,
      "Roy": 7383,
      "honesty": 7384,
      "mattered": 7385,
      "active": 7386,
      "binocular": 7387,
      "trailer": 7388,
      "Coal": 7389,
      "buckled": 7390,
      "fantastic": 7391,
      "exercises": 7392,
      "textures": 7393,
      "activity": 7394,
      "charge": 7395,
      "behavior": 7396,
      "snowflakes": 7397,
      "Joseph": 7398,
      "customer": 7399,
      "audience": 7400,
      "Fortunately": 7401,
      "Book": 7402,
      "Cir": 7403,
      "Math": 7404,
      "Rit": 7405,
      "Satur": 7406,
      "awoke": 7407,
      "gonna": 7408,
      "ien": 7409,
      "munk": 7410,
      "tid": 7411,
      "tment": 7412,
      "oudest": 7413,
      "erk": 7414,
      "stall": 7415,
      "neare": 7416,
      "becomes": 7417,
      "rier": 7418,
      "momma": 7419,
      "mommies": 7420,
      "stomp": 7421,
      "elbow": 7422,
      "classm": 7423,
      "ooky": 7424,
      "thanking": 7425,
      "leap": 7426,
      "coloring": 7427,
      "keyhole": 7428,
      "finishes": 7429,
      "purrs": 7430,
      "Gray": 7431,
      "cowboy": 7432,
      "scent": 7433,
      "zooms": 7434,
      "Peace": 7435,
      "terrified": 7436,
      "accidents": 7437,
      "diamonds": 7438,
      "messes": 7439,
      "floats": 7440,
      "Colin": 7441,
      "Sunshine": 7442,
      "Graceful": 7443,
      "appreciation": 7444,
      "chipmunk": 7445,
      "responsib": 7446,
      "sleds": 7447,
      "rescuing": 7448,
      "insisting": 7449,
      "Sleepy": 7450,
      "nuzzled": 7451,
      "telescope": 7452,
      "refreshing": 7453,
      "Rita": 7454,
      "Saturday": 7455,
      "Alf": 7456,
      "Banan": 7457,
      "Dust": 7458,
      "Fun": 7459,
      "Pret": 7460,
      "Riri": 7461,
      "Sit": 7462,
      "Tammy": 7463,
      "coug": 7464,
      "loudest": 7465,
      "whim": 7466,
      "washes": 7467,
      "wee": 7468,
      "weal": 7469,
      "birdhouse": 7470,
      "goodby": 7471,
      "clerk": 7472,
      "surv": 7473,
      "skies": 7474,
      "Annabelle": 7475,
      "vented": 7476,
      "flown": 7477,
      "ketch": 7478,
      "shares": 7479,
      "cleans": 7480,
      "conver": 7481,
      "displayed": 7482,
      "disaster": 7483,
      "rowed": 7484,
      "storms": 7485,
      "Catch": 7486,
      "laces": 7487,
      "whispering": 7488,
      "Brrr": 7489,
      "caterpillars": 7490,
      "messed": 7491,
      "Robot": 7492,
      "files": 7493,
      "cells": 7494,
      "Wolf": 7495,
      "beaming": 7496,
      "Quickly": 7497,
      "sented": 7498,
      "fluttering": 7499,
      "Horsie": 7500,
      "annoying": 7501,
      "Startled": 7502,
      "faint": 7503,
      "collapsed": 7504,
      "Captain": 7505,
      "goodbyes": 7506,
      "Gra": 7507,
      "Mind": 7508,
      "Muff": 7509,
      "Pizz": 7510,
      "Waff": 7511,
      "nan": 7512,
      "anie": 7513,
      "inches": 7514,
      "iscu": 7515,
      "ilities": 7516,
      "chilly": 7517,
      "blank": 7518,
      "whir": 7519,
      "chea": 7520,
      "White": 7521,
      "cracks": 7522,
      "consid": 7523,
      "marsh": 7524,
      "glimmering": 7525,
      "presented": 7526,
      "affect": 7527,
      "passeng": 7528,
      "battle": 7529,
      "finishing": 7530,
      "returning": 7531,
      "answering": 7532,
      "whales": 7533,
      "gasps": 7534,
      "twists": 7535,
      "environ": 7536,
      "grandparents": 7537,
      "admiration": 7538,
      "tumbled": 7539,
      "seagulls": 7540,
      "killed": 7541,
      "encountered": 7542,
      "binoculars": 7543,
      "passengers": 7544,
      "environment": 7545,
      "Cammy": 7546,
      "Pl": 7547,
      "Ruff": 7548,
      "Sing": 7549,
      "Sal": 7550,
      "dial": 7551,
      "toise": 7552,
      "inted": 7553,
      "erts": 7554,
      "cosy": 7555,
      "posit": 7556,
      "checks": 7557,
      "beast": 7558,
      "squaw": 7559,
      "forests": 7560,
      "culp": 7561,
      "tops": 7562,
      "trot": 7563,
      "snip": 7564,
      "dressing": 7565,
      "sleeps": 7566,
      "riverbank": 7567,
      "winners": 7568,
      "probab": 7569,
      "scurry": 7570,
      "heartbroken": 7571,
      "adds": 7572,
      "digs": 7573,
      "stretches": 7574,
      "trusting": 7575,
      "croaked": 7576,
      "desks": 7577,
      "novels": 7578,
      "granddaughter": 7579,
      "lectures": 7580,
      "luckily": 7581,
      "providing": 7582,
      "trigger": 7583,
      "Flutter": 7584,
      "Rainbow": 7585,
      "Woolly": 7586,
      "opportun": 7587,
      "shooed": 7588,
      "exploded": 7589,
      "Amanda": 7590,
      "Lightning": 7591,
      "Nutty": 7592,
      "scrambled": 7593,
      "coughed": 7594,
      "probably": 7595,
      "Glow": 7596,
      "Ot": 7597,
      "Panda": 7598,
      "Ran": 7599,
      "Ty": 7600,
      "Vicky": 7601,
      "bond": 7602,
      "ipper": 7603,
      "munch": 7604,
      "suck": 7605,
      "inter": 7606,
      "chill": 7607,
      "lappy": 7608,
      "caps": 7609,
      "donkey": 7610,
      "squir": 7611,
      "conqu": 7612,
      "duckling": 7613,
      "prevented": 7614,
      "ippers": 7615,
      "soapy": 7616,
      "awful": 7617,
      "orders": 7618,
      "flashes": 7619,
      "alligators": 7620,
      "cracker": 7621,
      "vests": 7622,
      "tearing": 7623,
      "desserts": 7624,
      "fishes": 7625,
      "structures": 7626,
      "meowing": 7627,
      "bruises": 7628,
      "levers": 7629,
      "correctly": 7630,
      "Muffin": 7631,
      "Pizza": 7632,
      "App": 7633,
      "Fay": 7634,
      "Par": 7635,
      "Sasha": 7636,
      "Te": 7637,
      "Tess": 7638,
      "fond": 7639,
      "fries": 7640,
      "signing": 7641,
      "ening": 7642,
      "ative": 7643,
      "noticing": 7644,
      "dock": 7645,
      "ala": 7646,
      "newspa": 7647,
      "parrow": 7648,
      "causing": 7649,
      "runner": 7650,
      "bud": 7651,
      "squished": 7652,
      "tortoise": 7653,
      "visits": 7654,
      "glided": 7655,
      "patches": 7656,
      "tests": 7657,
      "calmly": 7658,
      "breaths": 7659,
      "campfire": 7660,
      "unpacking": 7661,
      "experien": 7662,
      "Kevin": 7663,
      "Flora": 7664,
      "masterpiece": 7665,
      "Matilda": 7666,
      "earned": 7667,
      "behaviour": 7668,
      "dodged": 7669,
      "Spinny": 7670,
      "Trucky": 7671,
      "prickly": 7672,
      "Circle": 7673,
      "classmates": 7674,
      "wealth": 7675,
      "nanny": 7676,
      "newspapers": 7677,
      "Coby": 7678,
      "Freeze": 7679,
      "Jason": 7680,
      "Ka": 7681,
      "Life": 7682,
      "Ned": 7683,
      "Puff": 7684,
      "Sc": 7685,
      "cadabra": 7686,
      "iam": 7687,
      "rout": 7688,
      "zippers": 7689,
      "rent": 7690,
      "ared": 7691,
      "attempt": 7692,
      "atitude": 7693,
      "rick": 7694,
      "chin": 7695,
      "fet": 7696,
      "ooking": 7697,
      "peep": 7698,
      "sadder": 7699,
      "coach": 7700,
      "seeking": 7701,
      "ruff": 7702,
      "whoever": 7703,
      "moat": 7704,
      "skirts": 7705,
      "sets": 7706,
      "fixer": 7707,
      "concer": 7708,
      "brightest": 7709,
      "fights": 7710,
      "Rosa": 7711,
      "Roger": 7712,
      "decoration": 7713,
      "chews": 7714,
      "pepperoni": 7715,
      "examining": 7716,
      "stuffing": 7717,
      "spilling": 7718,
      "guarding": 7719,
      "travels": 7720,
      "Carly": 7721,
      "March": 7722,
      "pilots": 7723,
      "checkout": 7724,
      "weighing": 7725,
      "disappearing": 7726,
      "tickles": 7727,
      "weapons": 7728,
      "sprinkle": 7729,
      "offering": 7730,
      "appreciated": 7731,
      "efforts": 7732,
      "accomplished": 7733,
      "Melissa": 7734,
      "expression": 7735,
      "Giraffe": 7736,
      "Jetty": 7737,
      "arranged": 7738,
      "Andrew": 7739,
      "marshmall": 7740,
      "Abra": 7741,
      "Bert": 7742,
      "Oxygen": 7743,
      "Rav": 7744,
      "Val": 7745,
      "afar": 7746,
      "ashes": 7747,
      "poo": 7748,
      "rinse": 7749,
      "unfair": 7750,
      "dolly": 7751,
      "ford": 7752,
      "smoo": 7753,
      "melo": 7754,
      "parted": 7755,
      "capes": 7756,
      "gratitude": 7757,
      "eling": 7758,
      "oldest": 7759,
      "comets": 7760,
      "acing": 7761,
      "gardens": 7762,
      "foggy": 7763,
      "afford": 7764,
      "comforting": 7765,
      "rags": 7766,
      "Cats": 7767,
      "beaks": 7768,
      "sprays": 7769,
      "priv": 7770,
      "thieves": 7771,
      "aids": 7772,
      "weighs": 7773,
      "Paula": 7774,
      "Club": 7775,
      "brains": 7776,
      "Square": 7777,
      "sensation": 7778,
      "reversing": 7779,
      "Dotty": 7780,
      "Softy": 7781,
      "strokes": 7782,
      "announced": 7783,
      "groaned": 7784,
      "congratulated": 7785,
      "ketchup": 7786,
      "cheaper": 7787,
      "Tyler": 7788,
      "marshmallows": 7789,
      "Ravi": 7790,
      "',": 7791,
      "Ac": 7792,
      "Cel": 7793,
      "Cloud": 7794,
      "Flappy": 7795,
      "Isa": 7796,
      "Lung": 7797,
      "OO": 7798,
      "Pop": 7799,
      "War": 7800,
      "flock": 7801,
      "ol": 7802,
      "intent": 7803,
      "argum": 7804,
      "amused": 7805,
      "oray": 7806,
      "beating": 7807,
      "peat": 7808,
      "prank": 7809,
      "etah": 7810,
      "code": 7811,
      "suns": 7812,
      "uster": 7813,
      "nearly": 7814,
      "cheetah": 7815,
      "squinted": 7816,
      "throne": 7817,
      "wrigg": 7818,
      "connect": 7819,
      "Box": 7820,
      "Becky": 7821,
      "glared": 7822,
      "whel": 7823,
      "Repeat": 7824,
      "ounce": 7825,
      "cowboys": 7826,
      "hardest": 7827,
      "fans": 7828,
      "toolbox": 7829,
      "shoots": 7830,
      "miller": 7831,
      "nibbled": 7832,
      "rewarding": 7833,
      "kneeling": 7834,
      "experiment": 7835,
      "quacking": 7836,
      "hunting": 7837,
      "Microscope": 7838,
      "Feeling": 7839,
      "Smoke": 7840,
      "matey": 7841,
      "mischievous": 7842,
      "Abracadabra": 7843,
      "Value": 7844,
      "Bon": 7845,
      "Buster": 7846,
      "Gilly": 7847,
      "Min": 7848,
      "Oink": 7849,
      "Spicy": 7850,
      "Tip": 7851,
      "Tidy": 7852,
      "Wha": 7853,
      "fist": 7854,
      "ans": 7855,
      "enem": 7856,
      "isie": 7857,
      "idence": 7858,
      "unwrapped": 7859,
      "hoot": 7860,
      "worst": 7861,
      "grily": 7862,
      "grum": 7863,
      "sunscreen": 7864,
      "maje": 7865,
      "tage": 7866,
      "kinder": 7867,
      "common": 7868,
      "overwhel": 7869,
      "sandpit": 7870,
      "discouraged": 7871,
      "realise": 7872,
      "visible": 7873,
      "court": 7874,
      "shyly": 7875,
      "dashed": 7876,
      "fooled": 7877,
      "striking": 7878,
      "squeezes": 7879,
      "tempted": 7880,
      "streamers": 7881,
      "Robin": 7882,
      "supporting": 7883,
      "Didi": 7884,
      "!'.": 7885,
      "sneaks": 7886,
      "Maisie": 7887,
      "Monkey": 7888,
      "swaying": 7889,
      "compete": 7890,
      "Alfred": 7891,
      "experienced": 7892,
      "enemies": 7893,
      "AB": 7894,
      "Avery": 7895,
      "Cars": 7896,
      "Free": 7897,
      "Kathy": 7898,
      "Mad": 7899,
      "Nur": 7900,
      "Pur": 7901,
      "Rory": 7902,
      "Sw": 7903,
      "Ze": 7904,
      "lers": 7905,
      "limp": 7906,
      "natur": 7907,
      "sculp": 7908,
      "ering": 7909,
      "local": 7910,
      "backs": 7911,
      "lowers": 7912,
      "watermelon": 7913,
      "bride": 7914,
      "climber": 7915,
      "snor": 7916,
      "craft": 7917,
      "meaning": 7918,
      "enjoyable": 7919,
      "gulp": 7920,
      "swimsuits": 7921,
      "pleas": 7922,
      "Grump": 7923,
      "scrub": 7924,
      "Black": 7925,
      "desperate": 7926,
      "cages": 7927,
      "imagin": 7928,
      "explaining": 7929,
      "ugging": 7930,
      "cherish": 7931,
      "flav": 7932,
      "slapping": 7933,
      "automobiles": 7934,
      "curl": 7935,
      "scores": 7936,
      "honking": 7937,
      "Drink": 7938,
      "mooed": 7939,
      "Excitedly": 7940,
      "lossom": 7941,
      "peacock": 7942,
      "trotted": 7943,
      "Nurse": 7944,
      "Aho": 7945,
      "Cally": 7946,
      "Dro": 7947,
      "Eating": 7948,
      "Pot": 7949,
      "Rubby": 7950,
      "Sug": 7951,
      "mered": 7952,
      "nch": 7953,
      "nations": 7954,
      "pipes": 7955,
      "ssess": 7956,
      "thew": 7957,
      "haven": 7958,
      "lest": 7959,
      "rips": 7960,
      "unless": 7961,
      "boil": 7962,
      "fuss": 7963,
      "declar": 7964,
      "possess": 7965,
      "Animal": 7966,
      "papa": 7967,
      "spooky": 7968,
      "winds": 7969,
      "Joanna": 7970,
      "joyfully": 7971,
      "final": 7972,
      "gladly": 7973,
      "snowy": 7974,
      "baa": 7975,
      "freezing": 7976,
      "drift": 7977,
      "coral": 7978,
      "circl": 7979,
      "troubles": 7980,
      "coolest": 7981,
      "trusts": 7982,
      "seller": 7983,
      "flashing": 7984,
      "cidents": 7985,
      "bathed": 7986,
      "admit": 7987,
      "Squee": 7988,
      "Hooray": 7989,
      "banging": 7990,
      "approach": 7991,
      "experiences": 7992,
      "honks": 7993,
      "Matthew": 7994,
      "enemy": 7995,
      "steering": 7996,
      "Raven": 7997,
      "gooey": 7998,
      "brakes": 7999,
      "Pretty": 8000,
      "Accidents": 8001,
      "Swim": 8002,
      "sculpture": 8003,
      "Ahoy": 8004,
      "Bib": 8005,
      "Cut": 8006,
      "Could": 8007,
      "Cell": 8008,
      "Mild": 8009,
      "Nat": 8010,
      "Puffy": 8011,
      "Past": 8012,
      "Tu": 8013,
      "Yell": 8014,
      "jack": 8015,
      "ks": 8016,
      "lull": 8017,
      "mie": 8018,
      "pads": 8019,
      "wig": 8020,
      "anced": 8021,
      "ouble": 8022,
      "dee": 8023,
      "gras": 8024,
      "type": 8025,
      "surfed": 8026,
      "underwater": 8027,
      "chains": 8028,
      "warmed": 8029,
      "snar": 8030,
      "cooks": 8031,
      "convin": 8032,
      "bushy": 8033,
      "bands": 8034,
      "interest": 8035,
      "solute": 8036,
      "sipped": 8037,
      "William": 8038,
      "cooperate": 8039,
      "example": 8040,
      "helicopters": 8041,
      "turkeys": 8042,
      "disappointment": 8043,
      "guards": 8044,
      "judges": 8045,
      "shorts": 8046,
      "otters": 8047,
      "styles": 8048,
      "apology": 8049,
      "differences": 8050,
      "emerged": 8051,
      "officers": 8052,
      "cubs": 8053,
      "Quacky": 8054,
      "Shake": 8055,
      "cottage": 8056,
      "instrument": 8057,
      "condition": 8058,
      "Prune": 8059,
      "responsibility": 8060,
      "overwhelmed": 8061,
      "natural": 8062,
      "Drop": 8063,
      "declared": 8064,
      "Bibi": 8065,
      "Cher": 8066,
      "Got": 8067,
      "Hal": 8068,
      "Land": 8069,
      "Mam": 8070,
      "Soup": 8071,
      "Wr": 8072,
      "ause": 8073,
      "cuc": 8074,
      "fif": 8075,
      "glo": 8076,
      "lor": 8077,
      "sus": 8078,
      "angrily": 8079,
      "ream": 8080,
      "halves": 8081,
      "erasers": 8082,
      "unfortunately": 8083,
      "endant": 8084,
      "sme": 8085,
      "god": 8086,
      "shallow": 8087,
      "observing": 8088,
      "blur": 8089,
      "blamed": 8090,
      "mold": 8091,
      "acy": 8092,
      "Through": 8093,
      "rocky": 8094,
      "fived": 8095,
      "bert": 8096,
      "doorstep": 8097,
      "stores": 8098,
      "fireflies": 8099,
      "drowned": 8100,
      "Bea": 8101,
      "emma": 8102,
      "foxes": 8103,
      "sprout": 8104,
      "mailing": 8105,
      "Lemon": 8106,
      "patients": 8107,
      "bubbly": 8108,
      "rubbish": 8109,
      "lamps": 8110,
      "squeaky": 8111,
      "frustration": 8112,
      "crops": 8113,
      "intelligence": 8114,
      "hips": 8115,
      "Spid": 8116,
      "threads": 8117,
      "speaks": 8118,
      "Albert": 8119,
      "discoveries": 8120,
      "wrench": 8121,
      "Patrick": 8122,
      "applause": 8123,
      "Mole": 8124,
      "paddling": 8125,
      "sincere": 8126,
      "deserved": 8127,
      "complet": 8128,
      "confidence": 8129,
      "costs": 8130,
      "Jonathan": 8131,
      "wounds": 8132,
      "Chickie": 8133,
      "target": 8134,
      "Immediately": 8135,
      "Books": 8136,
      "conversation": 8137,
      "argument": 8138,
      "Bonnie": 8139,
      "Yellow": 8140,
      "lullaby": 8141,
      "solutely": 8142,
      "Crusty": 8143,
      "Dis": 8144,
      "Ding": 8145,
      "Dull": 8146,
      "Jax": 8147,
      "Nia": 8148,
      "Sto": 8149,
      "Son": 8150,
      "Sta": 8151,
      "Turn": 8152,
      "ino": 8153,
      "habit": 8154,
      "plat": 8155,
      "lope": 8156,
      "adually": 8157,
      "soda": 8158,
      "tale": 8159,
      "venir": 8160,
      "leaking": 8161,
      "creak": 8162,
      "cheating": 8163,
      "Doll": 8164,
      "softened": 8165,
      "zzes": 8166,
      "snorted": 8167,
      "concent": 8168,
      "traps": 8169,
      "petting": 8170,
      "rotted": 8171,
      "mats": 8172,
      "quizzes": 8173,
      "spears": 8174,
      "Jennie": 8175,
      "countries": 8176,
      "mindful": 8177,
      "vast": 8178,
      "horri": 8179,
      "calmer": 8180,
      "hangs": 8181,
      "croak": 8182,
      "cocoon": 8183,
      "shields": 8184,
      "ribbit": 8185,
      "repairing": 8186,
      "pokes": 8187,
      "Dogs": 8188,
      "Sharp": 8189,
      "applauding": 8190,
      "recommendation": 8191
    },
    "merges": [
      [
        "h",
        "e"
      ],
      [
        "a",
        "n"
      ],
      [
        "t",
        "he"
      ],
      [
        "e",
        "d"
      ],
      [
        "t",
        "o"
      ],
      [
        "an",
        "d"
      ],
      [
        "i",
        "n"
      ],
      [
        "r",
        "e"
      ],
      [
        "i",
        "t"
      ],
      [
        "w",
        "a"
      ],
      [
        "o",
        "u"
      ],
      [
        "h",
        "a"
      ],
      [
        "T",
        "he"
      ],
      [
        "e",
        "r"
      ],
      [
        "wa",
        "s"
      ],
      [
        "e",
        "n"
      ],
      [
        "a",
        "y"
      ],
      [
        "o",
        "m"
      ],
      [
        "i",
        "s"
      ],
      [
        "a",
        "r"
      ],
      [
        "o",
        "n"
      ],
      [
        "i",
        "m"
      ],
      [
        "s",
        "a"
      ],
      [
        "i",
        "d"
      ],
      [
        "l",
        "l"
      ],
      [
        "l",
        "e"
      ],
      [
        "in",
        "g"
      ],
      [
        "s",
        "t"
      ],
      [
        "o",
        "t"
      ],
      [
        "a",
        "m"
      ],
      [
        "o",
        "r"
      ],
      [
        "i",
        "r"
      ],
      [
        "n",
        "e"
      ],
      [
        "The",
        "y"
      ],
      [
        "p",
        "l"
      ],
      [
        "i",
        "g"
      ],
      [
        "a",
        "t"
      ],
      [
        "H",
        "e"
      ],
      [
        "b",
        "e"
      ],
      [
        "i",
        "l"
      ],
      [
        "l",
        "o"
      ],
      [
        "a",
        "ll"
      ],
      [
        "r",
        "i"
      ],
      [
        "v",
        "er"
      ],
      [
        "h",
        "is"
      ],
      [
        "d",
        "ay"
      ],
      [
        "u",
        "t"
      ],
      [
        "sa",
        "id"
      ],
      [
        "pl",
        "ay"
      ],
      [
        "T",
        "im"
      ],
      [
        "it",
        "h"
      ],
      [
        "s",
        "e"
      ],
      [
        "w",
        "ith"
      ],
      [
        "p",
        "p"
      ],
      [
        "k",
        "ed"
      ],
      [
        "he",
        "r"
      ],
      [
        "o",
        "w"
      ],
      [
        "k",
        "e"
      ],
      [
        "c",
        "e"
      ],
      [
        "u",
        "n"
      ],
      [
        "S",
        "he"
      ],
      [
        "ha",
        "t"
      ],
      [
        "l",
        "d"
      ],
      [
        "t",
        "h"
      ],
      [
        "b",
        "ig"
      ],
      [
        "en",
        "d"
      ],
      [
        "y",
        "ou"
      ],
      [
        "ver",
        "y"
      ],
      [
        "t",
        "ed"
      ],
      [
        "v",
        "e"
      ],
      [
        "l",
        "i"
      ],
      [
        "c",
        "k"
      ],
      [
        "w",
        "e"
      ],
      [
        "ha",
        "pp"
      ],
      [
        "o",
        "f"
      ],
      [
        "ri",
        "end"
      ],
      [
        "f",
        "riend"
      ],
      [
        "u",
        "p"
      ],
      [
        "the",
        "y"
      ],
      [
        "il",
        "y"
      ],
      [
        "ha",
        "d"
      ],
      [
        "n",
        "ot"
      ],
      [
        "a",
        "d"
      ],
      [
        "w",
        "an"
      ],
      [
        "g",
        "e"
      ],
      [
        "it",
        "t"
      ],
      [
        "om",
        "e"
      ],
      [
        "the",
        "r"
      ],
      [
        "d",
        "o"
      ],
      [
        "n",
        "d"
      ],
      [
        "b",
        "o"
      ],
      [
        "a",
        "l"
      ],
      [
        "happ",
        "y"
      ],
      [
        "c",
        "h"
      ],
      [
        "f",
        "or"
      ],
      [
        "en",
        "t"
      ],
      [
        "L",
        "ily"
      ],
      [
        "sa",
        "w"
      ],
      [
        "s",
        "he"
      ],
      [
        "t",
        "hat"
      ],
      [
        "O",
        "ne"
      ],
      [
        "ou",
        "ld"
      ],
      [
        "m",
        "om"
      ],
      [
        "itt",
        "le"
      ],
      [
        "l",
        "ittle"
      ],
      [
        "im",
        "e"
      ],
      [
        "a",
        "s"
      ],
      [
        "t",
        "ime"
      ],
      [
        "s",
        "o"
      ],
      [
        "T",
        "om"
      ],
      [
        "r",
        "o"
      ],
      [
        ".",
        "\""
      ],
      [
        "f",
        "e"
      ],
      [
        "n",
        "am"
      ],
      [
        "ou",
        "nd"
      ],
      [
        "e",
        "s"
      ],
      [
        "the",
        "re"
      ],
      [
        "o",
        "o"
      ],
      [
        "nam",
        "ed"
      ],
      [
        "s",
        "m"
      ],
      [
        "we",
        "re"
      ],
      [
        "!",
        "\""
      ],
      [
        "wan",
        "ted"
      ],
      [
        "I",
        "t"
      ],
      [
        "b",
        "ut"
      ],
      [
        "friend",
        "s"
      ],
      [
        "v",
        "ed"
      ],
      [
        "ir",
        "d"
      ],
      [
        "h",
        "t"
      ],
      [
        "s",
        "h"
      ],
      [
        "r",
        "y"
      ],
      [
        "r",
        "a"
      ],
      [
        "to",
        "o"
      ],
      [
        "b",
        "ird"
      ],
      [
        "a",
        "re"
      ],
      [
        "m",
        "y"
      ],
      [
        "O",
        "n"
      ],
      [
        "u",
        "g"
      ],
      [
        "ou",
        "t"
      ],
      [
        "a",
        "ke"
      ],
      [
        "l",
        "p"
      ],
      [
        "id",
        "e"
      ],
      [
        "t",
        "er"
      ],
      [
        "w",
        "ent"
      ],
      [
        "c",
        "ar"
      ],
      [
        "On",
        "ce"
      ],
      [
        "u",
        "e"
      ],
      [
        "lo",
        "o"
      ],
      [
        "he",
        "lp"
      ],
      [
        "up",
        "on"
      ],
      [
        "th",
        "ing"
      ],
      [
        "in",
        "d"
      ],
      [
        "f",
        "un"
      ],
      [
        "i",
        "ll"
      ],
      [
        "to",
        "y"
      ],
      [
        "am",
        "e"
      ],
      [
        "d",
        "id"
      ],
      [
        "ge",
        "ther"
      ],
      [
        "l",
        "y"
      ],
      [
        "s",
        "ome"
      ],
      [
        "p",
        "e"
      ],
      [
        "u",
        "r"
      ],
      [
        "wa",
        "y"
      ],
      [
        "on",
        "e"
      ],
      [
        "m",
        "e"
      ],
      [
        "to",
        "gether"
      ],
      [
        "c",
        "at"
      ],
      [
        "o",
        "re"
      ],
      [
        "t",
        "re"
      ],
      [
        "a",
        "ck"
      ],
      [
        "a",
        "g"
      ],
      [
        "ne",
        "w"
      ],
      [
        "c",
        "an"
      ],
      [
        "c",
        "ame"
      ],
      [
        "c",
        "ould"
      ],
      [
        "oo",
        "d"
      ],
      [
        "do",
        "g"
      ],
      [
        "the",
        "ir"
      ],
      [
        "b",
        "all"
      ],
      [
        "i",
        "c"
      ],
      [
        "?",
        "\""
      ],
      [
        "p",
        "ar"
      ],
      [
        "h",
        "im"
      ],
      [
        "g",
        "ir"
      ],
      [
        "play",
        "ed"
      ],
      [
        "B",
        "ut"
      ],
      [
        "gir",
        "l"
      ],
      [
        "g",
        "o"
      ],
      [
        "f",
        "u"
      ],
      [
        "h",
        "o"
      ],
      [
        "m",
        "an"
      ],
      [
        "the",
        "m"
      ],
      [
        "he",
        "n"
      ],
      [
        "u",
        "m"
      ],
      [
        "a",
        "x"
      ],
      [
        "S",
        "ue"
      ],
      [
        "r",
        "om"
      ],
      [
        "sa",
        "d"
      ],
      [
        "bo",
        "y"
      ],
      [
        "ha",
        "ve"
      ],
      [
        "M",
        "ax"
      ],
      [
        "tre",
        "e"
      ],
      [
        "loo",
        "ked"
      ],
      [
        "lo",
        "ved"
      ],
      [
        "he",
        "d"
      ],
      [
        "ou",
        "g"
      ],
      [
        "f",
        "ound"
      ],
      [
        "a",
        "b"
      ],
      [
        "st",
        "ar"
      ],
      [
        "s",
        "ide"
      ],
      [
        "l",
        "a"
      ],
      [
        "B",
        "en"
      ],
      [
        "b",
        "ack"
      ],
      [
        "o",
        "ther"
      ],
      [
        "l",
        "t"
      ],
      [
        "par",
        "k"
      ],
      [
        "li",
        "ke"
      ],
      [
        "S",
        "am"
      ],
      [
        "a",
        "in"
      ],
      [
        "fu",
        "l"
      ],
      [
        "ow",
        "n"
      ],
      [
        "d",
        "e"
      ],
      [
        "o",
        "p"
      ],
      [
        "p",
        "r"
      ],
      [
        "e",
        "t"
      ],
      [
        "on",
        "g"
      ],
      [
        "w",
        "ould"
      ],
      [
        "n",
        "o"
      ],
      [
        "p",
        "ot"
      ],
      [
        "f",
        "a"
      ],
      [
        "ig",
        "ht"
      ],
      [
        "r",
        "an"
      ],
      [
        "s",
        "to"
      ],
      [
        "li",
        "ked"
      ],
      [
        "c",
        "o"
      ],
      [
        "m",
        "ake"
      ],
      [
        "Y",
        "ou"
      ],
      [
        "fe",
        "lt"
      ],
      [
        "se",
        "e"
      ],
      [
        "wan",
        "t"
      ],
      [
        "n",
        "ow"
      ],
      [
        "as",
        "ked"
      ],
      [
        "ar",
        "d"
      ],
      [
        "star",
        "ted"
      ],
      [
        "ou",
        "se"
      ],
      [
        "c",
        "a"
      ],
      [
        "il",
        "ed"
      ],
      [
        "oug",
        "ht"
      ],
      [
        "g",
        "ood"
      ],
      [
        "i",
        "ce"
      ],
      [
        "sm",
        "all"
      ],
      [
        "sm",
        "iled"
      ],
      [
        "w",
        "or"
      ],
      [
        "ri",
        "ed"
      ],
      [
        "m",
        "ore"
      ],
      [
        "e",
        "x"
      ],
      [
        "s",
        "ay"
      ],
      [
        "m",
        "ad"
      ],
      [
        "r",
        "ed"
      ],
      [
        "s",
        "car"
      ],
      [
        "g",
        "r"
      ],
      [
        "S",
        "pot"
      ],
      [
        "k",
        "ing"
      ],
      [
        "p",
        "ut"
      ],
      [
        "f",
        "ind"
      ],
      [
        "t",
        "y"
      ],
      [
        "M",
        "om"
      ],
      [
        "a",
        "way"
      ],
      [
        "h",
        "ome"
      ],
      [
        "some",
        "thing"
      ],
      [
        "f",
        "rom"
      ],
      [
        "w",
        "hat"
      ],
      [
        "mad",
        "e"
      ],
      [
        "th",
        "ought"
      ],
      [
        "en",
        "ed"
      ],
      [
        "u",
        "c"
      ],
      [
        "play",
        "ing"
      ],
      [
        "s",
        "ha"
      ],
      [
        "wa",
        "l"
      ],
      [
        "i",
        "a"
      ],
      [
        "e",
        "very"
      ],
      [
        "m",
        "u"
      ],
      [
        "a",
        "ch"
      ],
      [
        "ar",
        "n"
      ],
      [
        "i",
        "le"
      ],
      [
        "M",
        "ia"
      ],
      [
        "la",
        "ug"
      ],
      [
        "bo",
        "x"
      ],
      [
        "ag",
        "ain"
      ],
      [
        "h",
        "ouse"
      ],
      [
        "re",
        "t"
      ],
      [
        "u",
        "se"
      ],
      [
        "d",
        "own"
      ],
      [
        "scar",
        "ed"
      ],
      [
        "le",
        "arn"
      ],
      [
        "too",
        "k"
      ],
      [
        "u",
        "re"
      ],
      [
        "n",
        "y"
      ],
      [
        "toy",
        "s"
      ],
      [
        "w",
        "ill"
      ],
      [
        "ge",
        "t"
      ],
      [
        "s",
        "s"
      ],
      [
        "ar",
        "ound"
      ],
      [
        "d",
        "d"
      ],
      [
        "you",
        "r"
      ],
      [
        "g",
        "ot"
      ],
      [
        "thing",
        "s"
      ],
      [
        "ou",
        "d"
      ],
      [
        "lo",
        "w"
      ],
      [
        "e",
        "l"
      ],
      [
        "is",
        "h"
      ],
      [
        ",",
        "\""
      ],
      [
        "i",
        "ck"
      ],
      [
        "the",
        "n"
      ],
      [
        "li",
        "ved"
      ],
      [
        "l",
        "ot"
      ],
      [
        "pe",
        "c"
      ],
      [
        "a",
        "ve"
      ],
      [
        "e",
        "p"
      ],
      [
        "S",
        "o"
      ],
      [
        "s",
        "un"
      ],
      [
        "d",
        "er"
      ],
      [
        "w",
        "hen"
      ],
      [
        "o",
        "b"
      ],
      [
        "pp",
        "ed"
      ],
      [
        "n",
        "a"
      ],
      [
        "i",
        "e"
      ],
      [
        "b",
        "ot"
      ],
      [
        "r",
        "u"
      ],
      [
        "t",
        "e"
      ],
      [
        "i",
        "f"
      ],
      [
        "L",
        "uc"
      ],
      [
        "Luc",
        "y"
      ],
      [
        "t",
        "ried"
      ],
      [
        "ro",
        "om"
      ],
      [
        "an",
        "t"
      ],
      [
        "it",
        "ed"
      ],
      [
        "k",
        "now"
      ],
      [
        "an",
        "y"
      ],
      [
        "w",
        "ho"
      ],
      [
        "say",
        "s"
      ],
      [
        "p",
        "ic"
      ],
      [
        "um",
        "p"
      ],
      [
        "man",
        "y"
      ],
      [
        "ab",
        "out"
      ],
      [
        "p",
        "ret"
      ],
      [
        "u",
        "s"
      ],
      [
        "c",
        "are"
      ],
      [
        "de",
        "c"
      ],
      [
        "W",
        "e"
      ],
      [
        "is",
        "e"
      ],
      [
        "k",
        "new"
      ],
      [
        "ou",
        "s"
      ],
      [
        "is",
        "t"
      ],
      [
        "b",
        "y"
      ],
      [
        "an",
        "k"
      ],
      [
        "all",
        "y"
      ],
      [
        "wa",
        "ter"
      ],
      [
        "at",
        "e"
      ],
      [
        "way",
        "s"
      ],
      [
        "q",
        "u"
      ],
      [
        "learn",
        "ed"
      ],
      [
        "p",
        "u"
      ],
      [
        "f",
        "ter"
      ],
      [
        "be",
        "came"
      ],
      [
        "be",
        "st"
      ],
      [
        "A",
        "nd"
      ],
      [
        "u",
        "st"
      ],
      [
        "i",
        "ve"
      ],
      [
        "b",
        "l"
      ],
      [
        "ex",
        "c"
      ],
      [
        "laug",
        "hed"
      ],
      [
        "g",
        "re"
      ],
      [
        "ne",
        "x"
      ],
      [
        "l",
        "ong"
      ],
      [
        "ca",
        "use"
      ],
      [
        "m",
        "o"
      ],
      [
        "loo",
        "k"
      ],
      [
        "out",
        "side"
      ],
      [
        "dec",
        "id"
      ],
      [
        "he",
        "re"
      ],
      [
        "al",
        "ways"
      ],
      [
        "sh",
        "ow"
      ],
      [
        "in",
        "to"
      ],
      [
        "decid",
        "ed"
      ],
      [
        "e",
        "at"
      ],
      [
        "be",
        "cause"
      ],
      [
        "it",
        "e"
      ],
      [
        "f",
        "ore"
      ],
      [
        "L",
        "et"
      ],
      [
        "p",
        "o"
      ],
      [
        "A",
        "n"
      ],
      [
        "c",
        "le"
      ],
      [
        "m",
        "a"
      ],
      [
        "c",
        "l"
      ],
      [
        "h",
        "ug"
      ],
      [
        "bot",
        "h"
      ],
      [
        "r",
        "un"
      ],
      [
        "The",
        "n"
      ],
      [
        "d",
        "ad"
      ],
      [
        "an",
        "g"
      ],
      [
        "o",
        "k"
      ],
      [
        "j",
        "ump"
      ],
      [
        "fa",
        "st"
      ],
      [
        "er",
        "s"
      ],
      [
        "s",
        "ur"
      ],
      [
        "c",
        "lo"
      ],
      [
        "t",
        "his"
      ],
      [
        "exc",
        "ited"
      ],
      [
        "W",
        "hen"
      ],
      [
        "n",
        "ice"
      ],
      [
        "fe",
        "el"
      ],
      [
        "s",
        "or"
      ],
      [
        "Y",
        "es"
      ],
      [
        "w",
        "h"
      ],
      [
        "b",
        "b"
      ],
      [
        "o",
        "ld"
      ],
      [
        "b",
        "u"
      ],
      [
        "in",
        "k"
      ],
      [
        "p",
        "a"
      ],
      [
        "to",
        "ld"
      ],
      [
        "c",
        "ome"
      ],
      [
        "s",
        "k"
      ],
      [
        "b",
        "r"
      ],
      [
        "B",
        "ob"
      ],
      [
        "ar",
        "a"
      ],
      [
        "H",
        "is"
      ],
      [
        "in",
        "side"
      ],
      [
        "sur",
        "pr"
      ],
      [
        "f",
        "ish"
      ],
      [
        "in",
        "y"
      ],
      [
        "pret",
        "ty"
      ],
      [
        "oo",
        "k"
      ],
      [
        "f",
        "ly"
      ],
      [
        "t",
        "a"
      ],
      [
        "An",
        "na"
      ],
      [
        "g",
        "ave"
      ],
      [
        "t",
        "ake"
      ],
      [
        "ou",
        "r"
      ],
      [
        "A",
        "my"
      ],
      [
        "mu",
        "ch"
      ],
      [
        "le",
        "w"
      ],
      [
        "j",
        "o"
      ],
      [
        "h",
        "ow"
      ],
      [
        "le",
        "t"
      ],
      [
        "e",
        "ach"
      ],
      [
        "v",
        "en"
      ],
      [
        "it",
        "s"
      ],
      [
        "im",
        "al"
      ],
      [
        "un",
        "der"
      ],
      [
        "an",
        "imal"
      ],
      [
        "u",
        "dd"
      ],
      [
        "ne",
        "ed"
      ],
      [
        "a",
        "c"
      ],
      [
        "f",
        "low"
      ],
      [
        "th",
        "an"
      ],
      [
        "ab",
        "le"
      ],
      [
        "A",
        "s"
      ],
      [
        "sor",
        "ry"
      ],
      [
        "S",
        "ara"
      ],
      [
        "r",
        "d"
      ],
      [
        "g",
        "ed"
      ],
      [
        "e",
        "ll"
      ],
      [
        "s",
        "w"
      ],
      [
        "C",
        "an"
      ],
      [
        "T",
        "h"
      ],
      [
        "u",
        "ck"
      ],
      [
        "is",
        "ed"
      ],
      [
        "ro",
        "ck"
      ],
      [
        "wal",
        "ked"
      ],
      [
        "ra",
        "in"
      ],
      [
        "Th",
        "ank"
      ],
      [
        "be",
        "ar"
      ],
      [
        "h",
        "and"
      ],
      [
        "d",
        "re"
      ],
      [
        "re",
        "ad"
      ],
      [
        "le",
        "a"
      ],
      [
        "ur",
        "n"
      ],
      [
        "ur",
        "t"
      ],
      [
        "k",
        "ind"
      ],
      [
        "j",
        "ust"
      ],
      [
        "t",
        "ry"
      ],
      [
        "H",
        "er"
      ],
      [
        "l",
        "ist"
      ],
      [
        "happ",
        "ened"
      ],
      [
        "in",
        "e"
      ],
      [
        "st",
        "r"
      ],
      [
        "be",
        "t"
      ],
      [
        "s",
        "pec"
      ],
      [
        "I",
        "n"
      ],
      [
        "f",
        "ood"
      ],
      [
        "ig",
        "h"
      ],
      [
        "animal",
        "s"
      ],
      [
        "wa",
        "t"
      ],
      [
        "did",
        "n"
      ],
      [
        "sk",
        "y"
      ],
      [
        "f",
        "i"
      ],
      [
        "ne",
        "ar"
      ],
      [
        "ne",
        "ver"
      ],
      [
        "v",
        "ing"
      ],
      [
        "b",
        "ug"
      ],
      [
        "F",
        "rom"
      ],
      [
        "b",
        "ro"
      ],
      [
        "ke",
        "t"
      ],
      [
        "ide",
        "a"
      ],
      [
        "bet",
        "ter"
      ],
      [
        "c",
        "re"
      ],
      [
        "c",
        "he"
      ],
      [
        "t",
        "w"
      ],
      [
        "he",
        "ard"
      ],
      [
        "n",
        "t"
      ],
      [
        "a",
        "ce"
      ],
      [
        "s",
        "p"
      ],
      [
        "b",
        "ed"
      ],
      [
        "f",
        "f"
      ],
      [
        "t",
        "al"
      ],
      [
        "lo",
        "ve"
      ],
      [
        "f",
        "lew"
      ],
      [
        "care",
        "ful"
      ],
      [
        "b",
        "er"
      ],
      [
        "i",
        "on"
      ],
      [
        "i",
        "al"
      ],
      [
        "c",
        "om"
      ],
      [
        "sha",
        "re"
      ],
      [
        "spec",
        "ial"
      ],
      [
        "co",
        "l"
      ],
      [
        "lot",
        "s"
      ],
      [
        "to",
        "w"
      ],
      [
        "any",
        "more"
      ],
      [
        "l",
        "f"
      ],
      [
        "w",
        "here"
      ],
      [
        "bo",
        "ok"
      ],
      [
        "c",
        "ake"
      ],
      [
        "g",
        "ive"
      ],
      [
        "w",
        "ind"
      ],
      [
        "cle",
        "an"
      ],
      [
        "d",
        "on"
      ],
      [
        "gr",
        "ound"
      ],
      [
        "p",
        "er"
      ],
      [
        "E",
        "very"
      ],
      [
        "op",
        "le"
      ],
      [
        "e",
        "ven"
      ],
      [
        "sa",
        "fe"
      ],
      [
        "T",
        "hat"
      ],
      [
        "l",
        "ad"
      ],
      [
        "as",
        "s"
      ],
      [
        "o",
        "ver"
      ],
      [
        "m",
        "ag"
      ],
      [
        "udd",
        "en"
      ],
      [
        "sh",
        "iny"
      ],
      [
        "b",
        "ad"
      ],
      [
        "t",
        "urn"
      ],
      [
        "f",
        "am"
      ],
      [
        "a",
        "fter"
      ],
      [
        "r",
        "m"
      ],
      [
        "pe",
        "ople"
      ],
      [
        "e",
        "ver"
      ],
      [
        "do",
        "or"
      ],
      [
        "pr",
        "oud"
      ],
      [
        "udden",
        "ly"
      ],
      [
        "g",
        "ard"
      ],
      [
        "gard",
        "en"
      ],
      [
        "D",
        "o"
      ],
      [
        "ra",
        "bb"
      ],
      [
        "surpr",
        "ised"
      ],
      [
        "pic",
        "ked"
      ],
      [
        "a",
        "pp"
      ],
      [
        "pec",
        "ted"
      ],
      [
        "h",
        "urt"
      ],
      [
        "op",
        "ened"
      ],
      [
        "l",
        "oud"
      ],
      [
        "be",
        "a"
      ],
      [
        "h",
        "igh"
      ],
      [
        "ha",
        "rd"
      ],
      [
        "W",
[...]
